<unk>	0
<s>	0
</s>	0
▁A	-0
▁I	-1
AN	-2
▁N	-3
an	-4
▁M	-5
▁K	-6
▁B	-7
▁U	-8
RI	-9
YA	-10
ri	-11
ya	-12
RA	-13
▁b	-14
▁,	-15
mu	-16
▁k	-17
▁n	-18
▁.	-19
ra	-20
▁i	-21
GA	-22
▁a	-23
▁MU	-24
IN	-25
ga	-26
▁R	-27
SH	-28
BA	-29
WA	-30
wa	-31
▁u	-32
sh	-33
▁mu	-34
in	-35
ZA	-36
MA	-37
▁G	-38
▁KU	-39
YE	-40
ye	-41
ba	-42
ma	-43
ru	-44
▁YA	-45
▁ku	-46
RE	-47
re	-48
YO	-49
KO	-50
za	-51
KA	-52
ko	-53
gi	-54
YI	-55
▁ya	-56
MU	-57
▁C	-58
ka	-59
RU	-60
WE	-61
gu	-62
yo	-63
we	-64
yi	-65
ZI	-66
TE	-67
zi	-68
▁BA	-69
GI	-70
KU	-71
te	-72
ZE	-73
ku	-74
▁ba	-75
TA	-76
BU	-77
bu	-78
ta	-79
20	-80
GE	-81
HA	-82
ze	-83
SE	-84
TU	-85
tu	-86
ha	-87
▁GU	-88
BO	-89
▁Y	-90
DA	-91
▁P	-92
▁S	-93
BI	-94
▁AMA	-95
ge	-96
bo	-97
KI	-98
ki	-99
bi	-100
se	-101
▁20	-102
da	-103
▁NA	-104
DI	-105
RO	-106
ro	-107
HO	-108
▁BI	-109
TAN	-110
di	-111
GO	-112
▁gu	-113
ho	-114
GU	-115
▁c	-116
ANA	-117
▁KO	-118
▁IN	-119
go	-120
▁na	-121
▁ko	-122
▁UMU	-123
▁1	-124
mi	-125
▁IM	-126
▁bi	-127
KURU	-128
ana	-129
kuru	-130
SHA	-131
▁F	-132
BE	-133
be	-134
HE	-135
he	-136
WI	-137
ME	-138
▁UBU	-139
TI	-140
HAN	-141
▁NI	-142
SA	-143
yu	-144
tan	-145
▁WA	-146
JE	-147
YU	-148
▁W	-149
▁wa	-150
▁T	-151
ti	-152
me	-153
24	-154
wo	-155
BAN	-156
ban	-157
sha	-158
wi	-159
▁y	-160
SI	-161
ZO	-162
DU	-163
si	-164
▁MURI	-165
WO	-166
han	-167
▁-	-168
KE	-169
VU	-170
vu	-171
▁r	-172
je	-173
KIN	-174
kin	-175
▁HA	-176
mo	-177
on	-178
ON	-179
HI	-180
MO	-181
▁m	-182
▁ARI	-183
▁ari	-184
wan	-185
LI	-186
SHI	-187
▁BU	-188
HU	-189
▁in	-190
▁ni	-191
▁3	-192
WAN	-193
▁Mu	-194
▁CYA	-195
sa	-196
shi	-197
▁muri	-198
hu	-199
li	-200
hi	-201
DE	-202
TANGA	-203
▁w	-204
▁GI	-205
▁ABA	-206
NE	-207
RAN	-208
ran	-209
de	-210
TSE	-211
▁umu	-212
▁L	-213
▁RU	-214
▁gi	-215
▁’	-216
▁KI	-217
▁ha	-218
TO	-219
ke	-220
▁cya	-221
CE	-222
ce	-223
▁ubu	-224
▁E	-225
YON	-226
yon	-227
du	-228
HIN	-229
ITE	-230
▁aba	-231
FA	-232
▁”	-233
▁ama	-234
tse	-235
RWA	-236
fa	-237
rwa	-238
▁YO	-239
▁Ama	-240
TS	-241
▁bu	-242
▁im	-243
ts	-244
zo	-245
▁"	-246
YAN	-247
yan	-248
▁“	-249
MI	-250
ite	-251
le	-252
▁Ubu	-253
▁2024	-254
KUN	-255
kun	-256
ZIN	-257
▁IBI	-258
LE	-259
NA	-260
ne	-261
▁5	-262
▁In	-263
GIYE	-264
giye	-265
VA	-266
▁NYA	-267
▁7	-268
▁ru	-269
WANDA	-270
so	-271
SO	-272
va	-273
▁:	-274
RAGA	-275
SHYI	-276
raga	-277
wanda	-278
GAN	-279
gan	-280
▁Nya	-281
FU	-282
fu	-283
shyi	-284
MBA	-285
mba	-286
▁YI	-287
BERA	-288
bera	-289
▁KURI	-290
gera	-291
GERA	-292
YOBO	-293
yobo	-294
▁ibi	-295
OR	-296
MWE	-297
mwe	-298
KINO	-299
kino	-300
▁201	-301
UMU	-302
▁MA	-303
▁kuri	-304
or	-305
to	-306
▁FC	-307
▁202	-308
▁RYA	-309
▁RWANDA	-310
EN	-311
SHO	-312
▁MI	-313
GIRA	-314
gira	-315
▁AKA	-316
▁2	-317
/20	-318
BERE	-319
bere	-320
▁Rwanda	-321
en	-322
sho	-323
▁RA	-324
FITE	-325
fite	-326
HANGA	-327
hanga	-328
/0	-329
▁4	-330
TUN	-331
tun	-332
▁ki	-333
▁Umu	-334
/2024	-335
pe	-336
▁J	-337
▁Ra	-338
▁IMI	-339
HINDU	-340
▁ITANGA	-341
▁D	-342
BWO	-343
bwo	-344
▁30	-345
▁BY	-346
▁yo	-347
SABA	-348
▁IKI	-349
▁INKURU	-350
RUKA	-351
ZINA	-352
ruka	-353
▁NGO	-354
▁ITANGAZO	-355
CY	-356
PE	-357
cy	-358
san	-359
▁RE	-360
▁Ya	-361
▁BYA	-362
▁NTA	-363
▁NYAMU	-364
▁Nyamu	-365
▁AMAKURU	-366
SAN	-367
▁ngo	-368
▁NYAMUKURU	-369
▁Nyamukuru	-370
GEN	-371
▁GA	-372
▁IB	-373
▁by	-374
SEKE	-375
▁UMUSEKE	-376
KAN	-377
kan	-378
▁KA	-379
▁Inkuru	-380
▁AMAZINA	-381
▁GUHINDU	-382
▁ZA	-383
ZWE	-384
zwe	-385
▁10	-386
▁UM	-387
▁WE	-388
▁ib	-389
KORA	-390
KORE	-391
kore	-392
▁KWI	-393
▁bya	-394
tanga	-395
umu	-396
▁SP	-397
▁yi	-398
SHIN	-399
shin	-400
▁INTE	-401
MB	-402
ZU	-403
mb	-404
na	-405
▁–	-406
▁ZI	-407
▁UYU	-408
▁aka	-409
▁USABA	-410
▁GUHINDUZA	-411
ter	-412
▁Im	-413
▁RI	-414
▁Sp	-415
▁nta	-416
▁KUBA	-417
mikino	-418
LA	-419
▁NO	-420
▁Ni	-421
▁we	-422
▁URU	-423
VE	-424
zu	-425
MBI	-426
UBU	-427
▁mi	-428
▁zi	-429
▁CYAN	-430
▁kuba	-431
▁8	-432
GWA	-433
gwa	-434
▁no	-435
RIKI	-436
riki	-437
▁GIHE	-438
▁gihe	-439
INE	-440
MBO	-441
ine	-442
mbo	-443
▁IC	-444
▁um	-445
▁IGI	-446
▁cyan	-447
do	-448
ou	-449
▁(	-450
▁)	-451
NYA	-452
ORTS	-453
RIMO	-454
rimo	-455
▁ATI	-456
▁NDE	-457
▁iki	-458
▁2023	-459
▁ABAN	-460
▁RAYON	-461
men	-462
MANA	-463
▁AHO	-464
▁aho	-465
BANZA	-466
banza	-467
▁Spor	-468
TABERA	-469
tabera	-470
▁Rayon	-471
DO	-472
ST	-473
la	-474
▁/	-475
▁H	-476
ABA	-477
hin	-478
ubu	-479
▁AHA	-480
GARAGA	-481
HERUKA	-482
YOBOZI	-483
garaga	-484
heruka	-485
yobozi	-486
▁SPORTS	-487
▁Sports	-488
▁UBUTABERA	-489
▁Ubutabera	-490
NYE	-491
RWE	-492
gen	-493
▁AL	-494
▁Al	-495
▁ARIKO	-496
▁ariko	-497
▁Z	-498
aba	-499
GIZE	-500
WAKA	-501
gize	-502
indi	-503
rika	-504
waka	-505
▁BWO	-506
▁nde	-507
▁IMIKINO	-508
IRO	-509
iro	-510
▁TE	-511
RIKA	-512
▁bwo	-513
▁igi	-514
▁uko	-515
pa	-516
▁%	-517
▁9	-518
twa	-519
▁AN	-520
▁AP	-521
▁Ki	-522
▁ic	-523
▁ri	-524
HUGU	-525
KOME	-526
hugu	-527
▁IYI	-528
▁NDETSE	-529
▁ndetse	-530
NET	-531
net	-532
▁BO	-533
▁PO	-534
▁KAN	-535
SHAKA	-536
▁aban	-537
▁INTER	-538
25	-539
▁‘	-540
jye	-541
nga	-542
▁TU	-543
RANA	-544
YUMA	-545
rana	-546
yuma	-547
▁kwi	-548
SHOBO	-549
shobo	-550
▁CYANE	-551
um	-552
ve	-553
▁CY	-554
▁Ga	-555
▁Po	-556
▁ma	-557
VUGA	-558
vuga	-559
▁uru	-560
ternet	-561
▁cyane	-562
▁INTERNET	-563
00	-564
FO	-565
JYE	-566
NGA	-567
▁YE	-568
▁za	-569
kome	-570
kora	-571
▁2010	-572
▁HARI	-573
▁MBERE	-574
▁Amakuru	-575
SS	-576
UM	-577
ss	-578
▁ka	-579
DIRI	-580
FOTO	-581
andi	-582
▁UKO	-583
▁YOU	-584
▁uyu	-585
rimbo	-586
▁POLI	-587
▁hari	-588
DIRIMBO	-589
▁internet	-590
▁6	-591
▁?	-592
▁©	-593
▁Ku	-594
▁cy	-595
MBWE	-596
mbwe	-597
▁Poli	-598
SHYIRA	-599
shyira	-600
▁mbere	-601
▁AHERUKA	-602
▁Imikino	-603
▁aheruka	-604
CA	-605
JYA	-606
jya	-607
▁Re	-608
yaka	-609
▁BYO	-610
▁byo	-611
▁IMYI	-612
▁YARI	-613
▁NYUMA	-614
88	-615
:+	-616
el	-617
250	-618
BWA	-619
bwa	-620
nge	-621
▁Ma	-622
▁bo	-623
▁ye	-624
DAGA	-625
VUZE	-626
daga	-627
vuze	-628
▁788	-629
▁APR	-630
:+250	-631
PI	-632
pi	-633
▁V	-634
AMA	-635
SHU	-636
shu	-637
▁ZO	-638
▁tu	-639
YAKA	-640
▁ARA	-641
▁yari	-642
▁CYARO	-643
▁cyaro	-644
▁[	-645
▁]	-646
/06	-647
▁zo	-648
ZIMA	-649
zima	-650
▁Aha	-651
▁Ati	-652
▁rya	-653
KUNGU	-654
kungu	-655
▁KUKO	-656
▁YAHI	-657
▁KANDI	-658
▁kandi	-659
TANGIYE	-660
tangiye	-661
/06/2024	-662
▁AMAFOTO	-663
FUN	-664
RYO	-665
fun	-666
rwe	-667
ryo	-668
▁NK	-669
BIRI	-670
DURO	-671
RIVA	-672
TSIN	-673
biri	-674
duro	-675
riva	-676
ENSHI	-677
▁GUSA	-678
▁kuko	-679
RIVACY	-680
rivacy	-681
yidaga	-682
▁nyuma	-683
dirimbo	-684
▁POLICY	-685
▁Policy	-686
DAGADURO	-687
▁PRIVACY	-688
▁Privacy	-689
▁UBUKUNGU	-690
yidagaduro	-691
NYI	-692
mbi	-693
▁PA	-694
SHYA	-695
UTUN	-696
shya	-697
utun	-698
▁You	-699
HIRWE	-700
KANYE	-701
KORWA	-702
TUNTU	-703
kanye	-704
korwa	-705
tuntu	-706
▁NAME	-707
UTUNDI	-708
utundi	-709
▁UTUNTU	-710
▁Utuntu	-711
▁AHABANZA	-712
▁AMAHANGA	-713
▁Ahabanza	-714
▁Amahanga	-715
▁Ubukungu	-716
▁IMYIDAGADURO	-717
▁Imyidagaduro	-718
CU	-719
UE	-720
UKO	-721
ama	-722
nya	-723
nyi	-724
uko	-725
GURI	-726
INSI	-727
INTU	-728
insi	-729
intu	-730
mana	-731
tsin	-732
▁RWA	-733
▁rwa	-734
▁MILI	-735
▁mili	-736
RANABU	-737
ranabu	-738
▁KUGIRA	-739
il	-740
▁O	-741
BYE	-742
IGI	-743
bye	-744
ina	-745
uru	-746
▁Ru	-747
▁nk	-748
BONA	-749
bona	-750
▁HAN	-751
▁iyi	-752
HANGE	-753
HANZI	-754
hanzi	-755
▁UBWO	-756
▁AKAZI	-757
▁CHANGE	-758
▁kugira	-759
RANABUHANGA	-760
ranabuhanga	-761
RW	-762
ca	-763
pp	-764
rw	-765
▁z	-766
BYA	-767
BYI	-768
IMI	-769
NDI	-770
QUE	-771
byi	-772
ndi	-773
▁Bi	-774
▁NE	-775
▁TA	-776
BUGA	-777
GABO	-778
ZABA	-779
buga	-780
zaba	-781
shaka	-782
▁BARI	-783
▁bari	-784
▁gusa	-785
▁CYAMU	-786
▁YAVUZE	-787
IL	-788
st	-789
IRI	-790
NSI	-791
NTU	-792
bya	-793
iri	-794
nsi	-795
ntu	-796
▁14	-797
▁BW	-798
▁Ha	-799
CIRO	-800
INDI	-801
KANA	-802
ciro	-803
kana	-804
wana	-805
▁AGA	-806
▁ATA	-807
▁CYO	-808
▁PRO	-809
▁ata	-810
RANGA	-811
TANGI	-812
ranga	-813
tangi	-814
▁ubwo	-815
SHOBORA	-816
shobora	-817
▁AMAHIRWE	-818
KWA	-819
MAN	-820
TWA	-821
man	-822
▁SE	-823
▁te	-824
HARI	-825
INGO	-826
KIRA	-827
MAZE	-828
gabo	-829
hari	-830
kira	-831
▁NKA	-832
▁UMW	-833
▁cyo	-834
▁nka	-835
HINZI	-836
hinzi	-837
▁BAKA	-838
▁IKIN	-839
▁baka	-840
KURIKI	-841
kuriki	-842
KORESHA	-843
koresha	-844
▁ABANDI	-845
▁abandi	-846
▁amakuru	-847
08	-848
18	-849
IM	-850
LO	-851
vi	-852
IKI	-853
URU	-854
hat	-855
▁LE	-856
▁bw	-857
NARA	-858
maze	-859
▁BWA	-860
▁IRI	-861
▁NTI	-862
▁RYO	-863
▁TWA	-864
▁bwa	-865
▁nti	-866
▁ICYO	-867
FUNGWA	-868
fungwa	-869
▁IKIPE	-870
GURISHA	-871
▁TARIKI	-872
PU	-873
pu	-874
su	-875
▁p	-876
HAT	-877
MBE	-878
ONI	-879
ing	-880
mbe	-881
nye	-882
oni	-883
▁RY	-884
▁ry	-885
GUYE	-886
RERE	-887
TARA	-888
TION	-889
baye	-890
guye	-891
rere	-892
seke	-893
tara	-894
tion	-895
▁ISI	-896
▁NZE	-897
▁SHA	-898
▁UKU	-899
▁han	-900
▁uku	-901
GENZI	-902
TEGAN	-903
menye	-904
▁IBYO	-905
▁Yahi	-906
KINNYI	-907
kinnyi	-908
▁KUGURISHA	-909
PA	-910
SU	-911
im	-912
▁$	-913
INA	-914
ING	-915
▁12	-916
▁15	-917
▁BE	-918
▁CA	-919
▁RW	-920
▁Yi	-921
▁ga	-922
▁rw	-923
▁ta	-924
BAYE	-925
BONE	-926
MAIL	-927
mail	-928
▁RWE	-929
▁UWA	-930
▁YAN	-931
▁aga	-932
▁imi	-933
▁rwe	-934
QUEST	-935
TANDU	-936
enshi	-937
tandu	-938
▁BIRI	-939
▁biri	-940
▁ibyo	-941
▁ikin	-942
FURIKA	-943
SHINGA	-944
furika	-945
shinga	-946
▁EMAIL	-947
▁MUNSI	-948
▁munsi	-949
▁UMWAKA	-950
▁REQUEST	-951
▁Umuseke	-952
▁YAHIMBWE	-953
▁Yahimbwe	-954
▁CYAMUNARA	-955
VI	-956
BWI	-957
LEF	-958
NDA	-959
RIA	-960
RIC	-961
TUM	-962
WOR	-963
bwi	-964
lef	-965
nda	-966
ria	-967
ric	-968
tum	-969
wor	-970
▁AS	-971
▁DA	-972
▁FM	-973
▁GO	-974
▁Le	-975
BAZO	-976
GEZA	-977
REZA	-978
REZI	-979
bazo	-980
geza	-981
rezi	-982
MENYE	-983
SHIZE	-984
shize	-985
tegan	-986
▁icyo	-987
KOMEYE	-988
LEFONI	-989
lefoni	-990
▁YISAN	-991
▁Yisan	-992
▁ikipe	-993
▁BENSHI	-994
▁IMINSI	-995
▁UMWANA	-996
▁iminsi	-997
▁tariki	-998
▁yavuze	-999
▁TELEFONI	-1000
▁telefoni	-1001
▁INDIRIMBO	-1002
▁YISANGIZE	-1003
▁Yisangize	-1004
KORANABUHANGA	-1005
koranabuhanga	-1006
:3	-1007
PP	-1008
AGA	-1009
INI	-1010
JWE	-1011
NGE	-1012
RVE	-1013
TEC	-1014
eza	-1015
jwe	-1016
rve	-1017
tec	-1018
▁25	-1019
▁An	-1020
▁Bu	-1021
▁SI	-1022
▁pa	-1023
RVED	-1024
SAPP	-1025
SEZE	-1026
VUBI	-1027
YONI	-1028
kipe	-1029
rved	-1030
sapp	-1031
seze	-1032
vubi	-1033
yoni	-1034
▁ALL	-1035
▁AZA	-1036
▁All	-1037
▁pro	-1038
▁twa	-1039
FASHA	-1040
GINGO	-1041
fasha	-1042
▁RESE	-1043
▁Rese	-1044
▁WARI	-1045
▁WHAT	-1046
▁what	-1047
SHYIZE	-1048
wakira	-1049
▁AKABA	-1050
▁HANZE	-1051
▁IGIHE	-1052
▁akaba	-1053
▁PROTEC	-1054
▁umwana	-1055
GARAGAZA	-1056
garagaza	-1057
▁AMAVUBI	-1058
▁Amavubi	-1059
▁GUTANGA	-1060
▁gutanga	-1061
▁RESERVED	-1062
▁Reserved	-1063
▁WHATSAPP	-1064
▁whatsapp	-1065
FI	-1066
cu	-1067
oo	-1068
ERA	-1069
SHE	-1070
she	-1071
▁Cl	-1072
▁Ka	-1073
▁PE	-1074
GORE	-1075
GURU	-1076
REKE	-1077
gore	-1078
guru	-1079
reke	-1080
tege	-1081
zeri	-1082
▁Aba	-1083
▁CON	-1084
▁KWE	-1085
▁UWI	-1086
▁Uyu	-1087
▁aza	-1088
▁kwe	-1089
INSHI	-1090
RENGA	-1091
inshi	-1092
renga	-1093
▁BANA	-1094
▁LETA	-1095
MAKURU	-1096
MERIKA	-1097
merika	-1098
▁IMANA	-1099
▁Imana	-1100
▁KWIGA	-1101
▁NZERI	-1102
▁Nzeri	-1103
FARANGA	-1104
INGENZI	-1105
faranga	-1106
▁ISIMBI	-1107
▁benshi	-1108
▁umwaka	-1109
▁BASHAKA	-1110
▁MILIYONI	-1111
▁miliyoni	-1112
72	-1113
BC	-1114
TN	-1115
ok	-1116
▁0	-1117
▁e	-1118
/07	-1119
/09	-1120
TED	-1121
ace	-1122
era	-1123
ini	-1124
▁FD	-1125
▁Mi	-1126
▁se	-1127
BANU	-1128
GURA	-1129
REBA	-1130
banu	-1131
gura	-1132
reba	-1133
▁306	-1134
▁772	-1135
▁818	-1136
▁908	-1137
▁CYI	-1138
▁KWA	-1139
▁MTN	-1140
▁TEL	-1141
▁Tel	-1142
▁Uwa	-1143
▁ara	-1144
▁ati	-1145
▁cyi	-1146
GERIA	-1147
KOMBE	-1148
KUNDA	-1149
geria	-1150
kombe	-1151
kunda	-1152
▁2011	-1153
▁wari	-1154
GANIRO	-1155
ganiro	-1156
gihugu	-1157
shyize	-1158
▁10/09	-1159
▁AVUGA	-1160
▁MWAKA	-1161
▁hanze	-1162
▁mwaka	-1163
IGIHUGU	-1164
/07/2024	-1165
KURIKIRA	-1166
kurikira	-1167
▁NIGERIA	-1168
▁Nigeria	-1169
▁GUFUNGWA	-1170
▁gufungwa	-1171
▁10/09/2024	-1172
DD	-1173
DF	-1174
ci	-1175
dd	-1176
df	-1177
wu	-1178
DEP	-1179
IBI	-1180
KWI	-1181
LOU	-1182
ZWA	-1183
ira	-1184
kwi	-1185
zwa	-1186
▁Gu	-1187
ABAN	-1188
BANA	-1189
HITA	-1190
KOZE	-1191
MAMA	-1192
REYE	-1193
TEGE	-1194
TUBE	-1195
TURA	-1196
bana	-1197
garu	-1198
hita	-1199
koze	-1200
pite	-1201
reye	-1202
reza	-1203
tura	-1204
▁BAN	-1205
▁NAN	-1206
▁iri	-1207
▁yan	-1208
BONYE	-1209
RANYE	-1210
RUTSE	-1211
ZINDI	-1212
bonye	-1213
gomba	-1214
ranye	-1215
▁KUVA	-1216
SOBANU	-1217
YIMANA	-1218
komeye	-1219
makuru	-1220
sobanu	-1221
tsinda	-1222
▁avuga	-1223
▁igihe	-1224
▁ABANTU	-1225
▁NTABWO	-1226
▁AFURIKA	-1227
▁Afurika	-1228
CI	-1229
DC	-1230
JI	-1231
LR	-1232
:37	-1233
ACE	-1234
LLA	-1235
MPI	-1236
UYU	-1237
Umu	-1238
mpi	-1239
uyu	-1240
▁13	-1241
▁19	-1242
▁JE	-1243
▁Je	-1244
▁SA	-1245
DAGE	-1246
DFLA	-1247
HORA	-1248
JENE	-1249
JURU	-1250
RIZA	-1251
SHWA	-1252
SHYU	-1253
TEKE	-1254
dfla	-1255
juru	-1256
mama	-1257
riza	-1258
shwa	-1259
shyu	-1260
▁BBC	-1261
▁Con	-1262
▁IKA	-1263
▁Iyi	-1264
▁NKO	-1265
▁SIN	-1266
▁ika	-1267
▁nko	-1268
GOMBA	-1269
HIMBA	-1270
STINE	-1271
himba	-1272
hirwe	-1273
stine	-1274
wandi	-1275
▁ANGE	-1276
▁Ange	-1277
▁CLOU	-1278
▁Clou	-1279
▁FDLR	-1280
▁Leta	-1281
▁NEZA	-1282
▁neza	-1283
DEPITE	-1284
DFLARE	-1285
JENEZA	-1286
KORAYO	-1287
SANZWE	-1288
TSINDA	-1289
dflare	-1290
sanzwe	-1291
▁IFITE	-1292
▁UWIZE	-1293
▁ifite	-1294
BONETSE	-1295
▁BUDAGE	-1296
▁GUKORA	-1297
▁IMYAKA	-1298
▁KABIRI	-1299
▁YAGIZE	-1300
▁abantu	-1301
▁gukora	-1302
▁imyaka	-1303
▁protec	-1304
▁INGINGO	-1305
▁UJENEZA	-1306
▁YOUTUBE	-1307
▁indirimbo	-1308
▁ARABONETSE	-1309
▁BANAKORAYO	-1310
▁CLOUDFLARE	-1311
▁Cloudflare	-1312
▁UWIZEYIMANA	-1313
OG	-1314
ic	-1315
jo	-1316
▁t	-1317
IDE	-1318
NGU	-1319
NZE	-1320
OTA	-1321
SON	-1322
ibi	-1323
imi	-1324
ngu	-1325
nze	-1326
ota	-1327
son	-1328
▁DR	-1329
▁DU	-1330
▁Dr	-1331
▁Pe	-1332
▁du	-1333
▁si	-1334
GEZE	-1335
ONZI	-1336
RIRA	-1337
TIMA	-1338
TUMA	-1339
ZAMU	-1340
anda	-1341
geze	-1342
haga	-1343
onzi	-1344
rira	-1345
tego	-1346
tima	-1347
tuma	-1348
zamu	-1349
▁Uru	-1350
GISHA	-1351
gisha	-1352
▁ICYI	-1353
▁icyi	-1354
REZIDA	-1355
rezida	-1356
▁TONZI	-1357
▁Tonzi	-1358
SHINZWE	-1359
TEGANYO	-1360
gategan	-1361
shinzwe	-1362
▁KUGERA	-1363
▁KUGEZA	-1364
▁kabiri	-1365
▁kugera	-1366
▁BIKORWA	-1367
▁bikorwa	-1368
gateganyo	-1369
▁PEREZIDA	-1370
AGATEGANYO	-1371
TANDUKANYE	-1372
tandukanye	-1373
▁ABAKINNYI	-1374
▁UMUYOBOZI	-1375
▁abakinnyi	-1376
23	-1377
:2	-1378
AD	-1379
JO	-1380
ad	-1381
fi	-1382
RAM	-1383
SWI	-1384
TER	-1385
gle	-1386
inj	-1387
lla	-1388
mva	-1389
ram	-1390
sin	-1391
swi	-1392
ted	-1393
▁11	-1394
▁16	-1395
▁4:	-1396
▁Ba	-1397
▁NY	-1398
▁iz	-1399
ANDA	-1400
JYAN	-1401
KIRE	-1402
OGLE	-1403
REZO	-1404
TIWE	-1405
YEZU	-1406
aban	-1407
hora	-1408
ince	-1409
jyan	-1410
kire	-1411
riye	-1412
teke	-1413
tiwe	-1414
yari	-1415
yezu	-1416
▁BWE	-1417
▁CAF	-1418
▁FRW	-1419
▁Frw	-1420
▁Goo	-1421
▁IZA	-1422
▁Iki	-1423
▁THE	-1424
▁WAN	-1425
▁ban	-1426
▁iza	-1427
GABAN	-1428
MENYA	-1429
TUMWA	-1430
WANDI	-1431
gaban	-1432
menya	-1433
tumwa	-1434
▁5:37	-1435
▁BATA	-1436
▁ERIC	-1437
▁Eric	-1438
▁IBYA	-1439
▁KUYI	-1440
▁YABA	-1441
▁bata	-1442
▁kuyi	-1443
▁yaba	-1444
JYANYE	-1445
WIHARI	-1446
depite	-1447
jyanye	-1448
wanjye	-1449
wihari	-1450
▁MISWI	-1451
▁akazi	-1452
▁email	-1453
▁miswi	-1454
▁BUZIMA	-1455
▁GOOGLE	-1456
▁Google	-1457
▁MUKINO	-1458
▁YAGUYE	-1459
▁buzima	-1460
▁mukino	-1461
▁yaguye	-1462
▁GUSHAKA	-1463
▁HATANGI	-1464
▁Hatangi	-1465
▁gushaka	-1466
▁HATANGIMANA	-1467
▁Hatangimana	-1468
ER	-1469
JA	-1470
UB	-1471
WU	-1472
BOO	-1473
KWE	-1474
kwe	-1475
▁Fi	-1476
▁HI	-1477
▁Ko	-1478
▁ME	-1479
▁Ne	-1480
▁Sa	-1481
▁VE	-1482
▁Ve	-1483
▁WO	-1484
▁wo	-1485
GALI	-1486
HAGA	-1487
HORO	-1488
PIRA	-1489
RAMI	-1490
RIYE	-1491
TANU	-1492
bura	-1493
dele	-1494
gali	-1495
hise	-1496
horo	-1497
pira	-1498
rami	-1499
tanu	-1500
▁AHU	-1501
▁Ibi	-1502
▁MPU	-1503
▁NDA	-1504
▁Sha	-1505
▁aha	-1506
▁mpu	-1507
HUMBI	-1508
KOBWA	-1509
WANYA	-1510
hindu	-1511
humbi	-1512
kobwa	-1513
wanya	-1514
▁BOSE	-1515
▁GUSE	-1516
▁IMBA	-1517
▁JEAN	-1518
▁Jean	-1519
▁KISS	-1520
▁Kiss	-1521
▁MINI	-1522
▁ibya	-1523
▁imba	-1524
BEREYE	-1525
KOMEJE	-1526
KORERA	-1527
bereye	-1528
garuka	-1529
komeje	-1530
korera	-1531
▁BINTU	-1532
▁CONGO	-1533
▁KIMWE	-1534
▁UGIYE	-1535
▁bintu	-1536
▁ugiye	-1537
▁BAFITE	-1538
▁IKINTU	-1539
▁IMBERE	-1540
▁KIGALI	-1541
▁KUBONA	-1542
▁UBURYO	-1543
▁USHIZE	-1544
▁bafite	-1545
▁imbere	-1546
▁kubona	-1547
▁ntabwo	-1548
▁ushize	-1549
GARAGAJE	-1550
garagaje	-1551
▁AMERIKA	-1552
▁Amerika	-1553
▁VESTINE	-1554
▁Vestine	-1555
▁IMBARAGA	-1556
▁MUSHINGA	-1557
▁UMUHANZI	-1558
▁imbaraga	-1559
▁mushinga	-1560
▁AMAFARANGA	-1561
DS	-1562
GH	-1563
IC	-1564
ds	-1565
gh	-1566
ja	-1567
ub	-1568
BLE	-1569
MVA	-1570
REN	-1571
RIE	-1572
TON	-1573
TSI	-1574
WIT	-1575
ble	-1576
cya	-1577
ren	-1578
ton	-1579
tsi	-1580
wit	-1581
▁1.	-1582
▁18	-1583
▁50	-1584
▁JO	-1585
▁LI	-1586
▁LU	-1587
▁Li	-1588
▁Lu	-1589
▁PY	-1590
▁Pa	-1591
▁Py	-1592
▁TI	-1593
▁Ti	-1594
▁Wa	-1595
▁hi	-1596
▁yu	-1597
BURA	-1598
BUYE	-1599
HOKA	-1600
KAZI	-1601
KIKO	-1602
KINI	-1603
MARI	-1604
MITE	-1605
REME	-1606
RUKO	-1607
WORD	-1608
YARI	-1609
YINE	-1610
YIRE	-1611
YONA	-1612
ZERE	-1613
book	-1614
buye	-1615
hoka	-1616
kiko	-1617
mari	-1618
mite	-1619
reme	-1620
rezo	-1621
ruko	-1622
word	-1623
yine	-1624
yire	-1625
yona	-1626
zere	-1627
▁IYO	-1628
▁RDC	-1629
▁RWO	-1630
▁STA	-1631
▁Sta	-1632
▁ahu	-1633
▁bwe	-1634
▁rwo	-1635
▁sha	-1636
ADING	-1637
FASHI	-1638
GENZU	-1639
HABWA	-1640
HONGA	-1641
IDELE	-1642
IRIRA	-1643
KUNZI	-1644
SHORA	-1645
ading	-1646
fashi	-1647
genzu	-1648
habwa	-1649
honga	-1650
irira	-1651
kunzi	-1652
rutse	-1653
shora	-1654
▁2022	-1655
▁BABA	-1656
▁BAYI	-1657
▁BAZA	-1658
▁BURI	-1659
▁KIPE	-1660
▁Kuva	-1661
▁PASS	-1662
▁YAKA	-1663
▁YARA	-1664
▁YASA	-1665
▁baba	-1666
▁bayi	-1667
▁baza	-1668
▁buri	-1669
▁kipe	-1670
▁pass	-1671
▁yaka	-1672
▁yasa	-1673
GARUKA	-1674
MAMAZA	-1675
RAMIDS	-1676
RWANDA	-1677
SONERA	-1678
TARAMO	-1679
ZIMANA	-1680
mamaza	-1681
ramids	-1682
rwanda	-1683
sonera	-1684
taramo	-1685
tegeko	-1686
zimana	-1687
▁BURYO	-1688
▁KUGAN	-1689
▁buryo	-1690
▁kugan	-1691
BYIRUKO	-1692
HIMBAZA	-1693
KWAKIRA	-1694
MPIYONA	-1695
TANGAJE	-1696
YONGERA	-1697
acebook	-1698
byiruko	-1699
himbaza	-1700
kwakira	-1701
mpiyona	-1702
tangaje	-1703
yongera	-1704
▁FIDELE	-1705
▁Fidele	-1706
▁GIHUGU	-1707
▁INTEGO	-1708
▁KOMITE	-1709
▁Kigali	-1710
▁gihugu	-1711
▁ikintu	-1712
▁uburyo	-1713
SHYIZEHO	-1714
UMWIHARI	-1715
shyizeho	-1716
umwihari	-1717
wamamaza	-1718
▁GAHONGA	-1719
▁Gahonga	-1720
▁READING	-1721
▁Reading	-1722
▁UWAYEZU	-1723
▁Uwayezu	-1724
▁ICYIZERE	-1725
▁MUSONERA	-1726
▁Musonera	-1727
▁PASSWORD	-1728
▁PYRAMIDS	-1729
▁Perezida	-1730
▁Pyramids	-1731
▁YAKATIWE	-1732
▁amahirwe	-1733
▁icyizere	-1734
▁password	-1735
▁yakatiwe	-1736
Agateganyo	-1737
UMWIHARIKO	-1738
umwihariko	-1739
▁PROTECTED	-1740
▁UMUDEPITE	-1741
▁Umudepite	-1742
▁protected	-1743
▁RWATANGIYE	-1744
▁SHAMPIYONA	-1745
▁amafaranga	-1746
▁rwatangiye	-1747
▁shampiyona	-1748
▁GAHONGAYIRE	-1749
▁Gahongayire	-1750
IKORANABUHANGA	-1751
NO	-1752
TD	-1753
no	-1754
td	-1755
CYA	-1756
GHT	-1757
MYI	-1758
RES	-1759
RIS	-1760
RYA	-1761
cyo	-1762
ght	-1763
iki	-1764
myi	-1765
res	-1766
ris	-1767
rya	-1768
▁AA	-1769
▁AF	-1770
▁Aa	-1771
▁HU	-1772
▁IP	-1773
▁Jo	-1774
▁Na	-1775
▁OF	-1776
▁ny	-1777
BAGI	-1778
GARU	-1779
HAYE	-1780
JIRI	-1781
KENE	-1782
KIZA	-1783
MARA	-1784
RANE	-1785
RESS	-1786
RURO	-1787
TIRI	-1788
TWOR	-1789
WIZA	-1790
ZIRA	-1791
bagi	-1792
kene	-1793
kini	-1794
mara	-1795
ress	-1796
ruro	-1797
saba	-1798
tiri	-1799
tube	-1800
twor	-1801
visi	-1802
wiza	-1803
▁ADD	-1804
▁AND	-1805
▁LTD	-1806
▁Ltd	-1807
▁The	-1808
▁URI	-1809
▁add	-1810
▁men	-1811
▁uri	-1812
IKIGO	-1813
KISHA	-1814
NGERA	-1815
SANZU	-1816
SHIJE	-1817
SHIMI	-1818
TWORK	-1819
YANGO	-1820
inisi	-1821
kisha	-1822
sanzu	-1823
shije	-1824
shimi	-1825
twork	-1826
yango	-1827
▁BITE	-1828
▁YAMU	-1829
▁bite	-1830
▁yamu	-1831
▁yara	-1832
IMYAKA	-1833
SARURO	-1834
TEGEKO	-1835
imyaka	-1836
saruro	-1837
▁Congo	-1838
▁KINTU	-1839
▁KWEZI	-1840
▁SINCE	-1841
▁Since	-1842
▁kintu	-1843
▁kwezi	-1844
SHOBOZI	-1845
TANGIRA	-1846
shobozi	-1847
tangira	-1848
▁BAKABA	-1849
▁BARIMO	-1850
▁BIHUGU	-1851
▁IBANZA	-1852
▁LUANDA	-1853
▁Luanda	-1854
▁MENSHI	-1855
▁MINISI	-1856
▁Minisi	-1857
▁bakaba	-1858
▁barimo	-1859
▁bihugu	-1860
▁ibanza	-1861
▁intego	-1862
▁menshi	-1863
▁yagize	-1864
GARAGARA	-1865
MENYESHA	-1866
garagara	-1867
menyesha	-1868
▁BYINSHI	-1869
▁CYICIRO	-1870
▁KUMENYA	-1871
▁NETWORK	-1872
▁Network	-1873
▁UBUZIMA	-1874
▁URUBUGA	-1875
▁byinshi	-1876
▁cyiciro	-1877
▁ubuzima	-1878
▁urubuga	-1879
▁MILIYARI	-1880
▁NDIRIMBO	-1881
▁SHAKISHA	-1882
▁Shakisha	-1883
▁miliyari	-1884
▁ndirimbo	-1885
▁GUHIMBAZA	-1886
▁GUTANGAZA	-1887
▁guhimbaza	-1888
▁gutangaza	-1889
▁KUGANIRIRA	-1890
▁kuganirira	-1891
ikoranabuhanga	-1892
▁IKORANABUHANGA	-1893
.2	-1894
04	-1895
10	-1896
AL	-1897
IB	-1898
MP	-1899
RD	-1900
RS	-1901
TY	-1902
fo	-1903
ib	-1904
mp	-1905
rd	-1906
rs	-1907
ty	-1908
▁•	-1909
000	-1910
AHO	-1911
DRI	-1912
JYI	-1913
MIE	-1914
SIN	-1915
aho	-1916
and	-1917
jyi	-1918
mie	-1919
rie	-1920
▁24	-1921
▁31	-1922
▁4.	-1923
▁9:	-1924
▁AC	-1925
▁AI	-1926
▁Me	-1927
▁Si	-1928
▁YU	-1929
▁as	-1930
▁be	-1931
BARE	-1932
BOOK	-1933
FATA	-1934
GANA	-1935
HINO	-1936
HUZA	-1937
INJI	-1938
KAZA	-1939
KIPE	-1940
KIRI	-1941
MBWA	-1942
MERA	-1943
RWAN	-1944
SEMO	-1945
SHAN	-1946
SINE	-1947
TATU	-1948
TORA	-1949
ZAMA	-1950
bare	-1951
fana	-1952
fata	-1953
hino	-1954
huza	-1955
ingo	-1956
kaza	-1957
kazi	-1958
kiri	-1959
mbwa	-1960
mera	-1961
rwan	-1962
shan	-1963
sine	-1964
tatu	-1965
tora	-1966
zama	-1967
zira	-1968
▁ANI	-1969
▁And	-1970
▁BIN	-1971
▁BON	-1972
▁IRA	-1973
▁Nta	-1974
▁RBA	-1975
▁SAN	-1976
▁iyo	-1977
▁nan	-1978
ABASO	-1979
KUNZE	-1980
RAMYA	-1981
RWEGO	-1982
TWARA	-1983
YANDI	-1984
YUNGU	-1985
abaso	-1986
banya	-1987
kunze	-1988
ramya	-1989
rwego	-1990
senya	-1991
yamba	-1992
yandi	-1993
yungu	-1994
▁2020	-1995
▁FACE	-1996
▁GICE	-1997
▁HINO	-1998
▁KUBI	-1999
▁KUVU	-2000
▁KUZA	-2001
▁TURI	-2002
▁TWIT	-2003
▁Twit	-2004
▁YAGO	-2005
▁YASO	-2006
▁gice	-2007
▁hino	-2008
▁kubi	-2009
▁kuvu	-2010
▁kuza	-2011
▁yaso	-2012
DOHOKA	-2013
GAJURU	-2014
GUKANA	-2015
KOMEZA	-2016
REKEZA	-2017
RYANGO	-2018
SHUSHO	-2019
SHYURA	-2020
dohoka	-2021
gajuru	-2022
gukana	-2023
komeza	-2024
rekeza	-2025
ryango	-2026
shusho	-2027
shyura	-2028
▁AKABI	-2029
▁ASANA	-2030
▁BAMWE	-2031
▁BYOSE	-2032
▁Email	-2033
▁HIRYA	-2034
▁IKABA	-2035
▁IZABA	-2036
▁MIGHT	-2037
▁RIMWE	-2038
▁akabi	-2039
▁asana	-2040
▁bamwe	-2041
▁byose	-2042
▁hirya	-2043
▁ikaba	-2044
▁rimwe	-2045
IMIKINO	-2046
Igihugu	-2047
RANGIRA	-2048
SANZURE	-2049
igihugu	-2050
imikino	-2051
rangira	-2052
sanzure	-2053
▁KUBERA	-2054
▁Komite	-2055
▁RUFITE	-2056
▁RUSINE	-2057
▁Rusine	-2058
▁TWANDI	-2059
▁Twandi	-2060
▁UMUNTU	-2061
▁kubera	-2062
▁kugeza	-2063
▁rufite	-2064
▁umuntu	-2065
ABASOMYI	-2066
SOBANUYE	-2067
YAMAKURU	-2068
abasomyi	-2069
sobanuye	-2070
▁GUSENYA	-2071
▁Gusenya	-2072
▁IBIBERA	-2073
▁IHERUKA	-2074
▁IMITIMA	-2075
▁KURAMYA	-2076
▁KWAKIRA	-2077
▁MPUZAMA	-2078
▁NTITURA	-2079
▁TWITTER	-2080
▁Twitter	-2081
▁URUKIKO	-2082
▁Youtube	-2083
▁ibibera	-2084
▁iheruka	-2085
▁imikino	-2086
▁imitima	-2087
▁kumenya	-2088
▁kuramya	-2089
▁mpuzama	-2090
▁ntitura	-2091
KWAMAMAZA	-2092
Kwamamaza	-2093
▁FACEBOOK	-2094
▁Facebook	-2095
▁HASHYIRA	-2096
▁KIGANIRO	-2097
▁hashyira	-2098
▁kiganiro	-2099
▁IKURIKIRA	-2100
▁YATANGAJE	-2101
▁ikurikira	-2102
▁yatangaje	-2103
▁19/06/2024	-2104
▁AKABIGISHA	-2105
▁MINISITIRI	-2106
▁Minisitiri	-2107
▁TWANDIKIRE	-2108
▁Twandikire	-2109
▁UBUSHOBOZI	-2110
▁URUBYIRUKO	-2111
▁akabigisha	-2112
▁ubushobozi	-2113
▁ABAMENYESHA	-2114
▁abamenyesha	-2115
▁MPUZAMAHANGA	-2116
▁mpuzamahanga	-2117
▁NTITURADOHOKA	-2118
▁ntituradohoka	-2119
▁ikoranabuhanga	-2120
RL	-2121
er	-2122
es	-2123
Ama	-2124
IRA	-2125
KTO	-2126
LEN	-2127
ZWI	-2128
ani	-2129
ena	-2130
ije	-2131
ita	-2132
len	-2133
lin	-2134
pam	-2135
zwi	-2136
▁CO	-2137
▁Hu	-2138
▁NU	-2139
▁ON	-2140
▁Um	-2141
▁nu	-2142
BIWE	-2143
ENDO	-2144
FURA	-2145
FUZA	-2146
GAMI	-2147
GERO	-2148
HOZE	-2149
KTOK	-2150
KURA	-2151
LICE	-2152
RACE	-2153
RANO	-2154
RIRO	-2155
RIVI	-2156
SUBI	-2157
TEKA	-2158
UBWI	-2159
UMVA	-2160
YUZE	-2161
biwe	-2162
endo	-2163
foto	-2164
fura	-2165
fuza	-2166
gami	-2167
gana	-2168
gero	-2169
haye	-2170
hoze	-2171
inyu	-2172
joro	-2173
kina	-2174
kura	-2175
lice	-2176
race	-2177
rane	-2178
rano	-2179
rine	-2180
riri	-2181
riro	-2182
subi	-2183
teka	-2184
ubwi	-2185
wuga	-2186
zego	-2187
▁APP	-2188
▁BYI	-2189
▁IHE	-2190
▁IZI	-2191
▁Iri	-2192
▁KEN	-2193
▁Ken	-2194
▁MPE	-2195
▁Tik	-2196
▁UBA	-2197
▁UGU	-2198
▁URE	-2199
▁byi	-2200
▁ihe	-2201
▁mpe	-2202
▁uba	-2203
▁you	-2204
DRINE	-2205
FASHE	-2206
GENDA	-2207
IKIPE	-2208
INARA	-2209
KWIYE	-2210
MBAGA	-2211
RANYA	-2212
SANGE	-2213
TUMYE	-2214
ZWEHO	-2215
fashe	-2216
genda	-2217
genzi	-2218
ikipe	-2219
inara	-2220
kwiye	-2221
ngera	-2222
rirwa	-2223
sange	-2224
tumye	-2225
twara	-2226
zindi	-2227
zweho	-2228
▁ALSO	-2229
▁Also	-2230
▁BIBA	-2231
▁BITA	-2232
▁GICU	-2233
▁KURE	-2234
▁KURU	-2235
▁LIKE	-2236
▁Like	-2237
▁Muri	-2238
▁NJYE	-2239
▁Sand	-2240
▁UMWE	-2241
▁Yago	-2242
▁bita	-2243
▁kure	-2244
▁seri	-2245
▁umwe	-2246
HANGAN	-2247
HISEMO	-2248
RIVISI	-2249
TSINZE	-2250
TURAGE	-2251
UBWIZA	-2252
UMUNYA	-2253
YOBORA	-2254
hangan	-2255
hisemo	-2256
tsinze	-2257
turage	-2258
ubwiza	-2259
umuntu	-2260
yobora	-2261
▁AFITE	-2262
▁ALICE	-2263
▁ALINE	-2264
▁ANITA	-2265
▁Alice	-2266
▁Aline	-2267
▁Anita	-2268
▁GRACE	-2269
▁Grace	-2270
▁MARIE	-2271
▁Marie	-2272
▁Might	-2273
▁NSHYA	-2274
▁NYINA	-2275
▁PENDO	-2276
▁Pendo	-2277
▁RUHAN	-2278
▁UFITE	-2279
▁afite	-2280
▁izaba	-2281
▁kimwe	-2282
▁nshya	-2283
▁ufite	-2284
AMAGURU	-2285
BAGIRWA	-2286
SHYIZWE	-2287
UMUKIZA	-2288
bagirwa	-2289
shyizwe	-2290
▁AHUBWO	-2291
▁HARIMO	-2292
▁IBINTU	-2293
▁MUKURU	-2294
▁TIKTOK	-2295
▁UMUNYA	-2296
▁WANJYE	-2297
▁ahubwo	-2298
▁harimo	-2299
▁ibintu	-2300
▁wanjye	-2301
KORESHWA	-2302
SHYIRAHO	-2303
TEKEREZO	-2304
UBUHINZI	-2305
koreshwa	-2306
shyiraho	-2307
▁CYANGWA	-2308
▁RUSANGE	-2309
▁UMUGABO	-2310
▁UMUKINO	-2311
▁Urukiko	-2312
▁cyangwa	-2313
INDIRIMBO	-2314
nyamakuru	-2315
▁BIZIMANA	-2316
▁Bizimana	-2317
▁IGIKOMBE	-2318
▁SANDRINE	-2319
▁SERIVISI	-2320
▁Sandrine	-2321
▁UBUHINZI	-2322
▁UKWAKIRA	-2323
▁Ukwakira	-2324
▁Umuhanzi	-2325
▁igikombe	-2326
▁serivisi	-2327
▁ubuhinzi	-2328
▁GUKORESHA	-2329
▁UBUYOBOZI	-2330
▁gukoresha	-2331
▁umuyobozi	-2332
▁YAGARAGAJE	-2333
▁urubyiruko	-2334
▁KORANABUHANGA	-2335
▁koranabuhanga	-2336
.1	-2337
.9	-2338
16	-2339
CH	-2340
ES	-2341
GB	-2342
JU	-2343
PL	-2344
PO	-2345
RÉ	-2346
Tu	-2347
ZW	-2348
ch	-2349
dj	-2350
ju	-2351
po	-2352
ré	-2353
:04	-2354
:22	-2355
:25	-2356
:26	-2357
ANI	-2358
AWE	-2359
BSI	-2360
CHI	-2361
CYO	-2362
DDY	-2363
DWA	-2364
EZA	-2365
HAD	-2366
LES	-2367
MWI	-2368
MYE	-2369
PUN	-2370
SEN	-2371
Tok	-2372
VAN	-2373
YWE	-2374
awe	-2375
bsi	-2376
chi	-2377
cia	-2378
ddy	-2379
dwa	-2380
les	-2381
mwi	-2382
mye	-2383
pho	-2384
pun	-2385
sen	-2386
van	-2387
ywe	-2388
ÉRÉ	-2389
éré	-2390
▁04	-2391
▁2.	-2392
▁22	-2393
▁3,	-2394
▁3.	-2395
▁48	-2396
▁5.	-2397
▁6.	-2398
▁60	-2399
▁70	-2400
▁71	-2401
▁8.	-2402
▁83	-2403
▁86	-2404
▁9.	-2405
▁Bo	-2406
▁Ca	-2407
▁DO	-2408
▁HE	-2409
▁KW	-2410
▁WU	-2411
▁ac	-2412
▁kw	-2413
▁on	-2414
▁wu	-2415
.000	-2416
AWEI	-2417
BABA	-2418
CATE	-2419
CECE	-2420
CHID	-2421
CUZA	-2422
ERTI	-2423
FANA	-2424
FASH	-2425
FATI	-2426
FUZI	-2427
GATI	-2428
GIRI	-2429
GWAN	-2430
HUTA	-2431
INGA	-2432
ISHA	-2433
JIJE	-2434
JORO	-2435
KUZW	-2436
MEJE	-2437
RIMB	-2438
SORE	-2439
Tube	-2440
VUYE	-2441
YIJE	-2442
YOVU	-2443
awei	-2444
baba	-2445
bone	-2446
cece	-2447
chid	-2448
cuza	-2449
fash	-2450
fati	-2451
fuzi	-2452
gati	-2453
giri	-2454
guri	-2455
hadj	-2456
huta	-2457
inga	-2458
inya	-2459
isha	-2460
jije	-2461
meje	-2462
sore	-2463
vuye	-2464
yije	-2465
yovu	-2466
▁10.	-2467
▁AYA	-2468
▁BWI	-2469
▁IDA	-2470
▁IYA	-2471
▁NYI	-2472
▁PAT	-2473
▁Pat	-2474
▁Pro	-2475
▁RGB	-2476
▁RIB	-2477
▁RPL	-2478
▁UKA	-2479
▁bon	-2480
▁bwi	-2481
▁ida	-2482
▁kwa	-2483
▁nda	-2484
▁uka	-2485
▁ure	-2486
BANZE	-2487
BSITE	-2488
BWIRA	-2489
DINDI	-2490
KANGA	-2491
NABLE	-2492
RIRWA	-2493
SHIME	-2494
SHURI	-2495
TANDA	-2496
TANYA	-2497
YIJWE	-2498
banze	-2499
bsite	-2500
bwira	-2501
hande	-2502
kanga	-2503
shuri	-2504
tanda	-2505
tanya	-2506
yijwe	-2507
▁2015	-2508
▁2021	-2509
▁2025	-2510
▁4:18	-2511
▁9:10	-2512
▁BADA	-2513
▁BELA	-2514
▁BUBI	-2515
▁GUSO	-2516
▁HAFI	-2517
▁INTA	-2518
▁JÉRÉ	-2519
▁Jéré	-2520
▁KAGA	-2521
▁KIGO	-2522
▁KUMU	-2523
▁NARI	-2524
▁Star	-2525
▁TUYI	-2526
▁YITE	-2527
▁ZIRI	-2528
▁bada	-2529
▁biba	-2530
▁bose	-2531
▁guso	-2532
▁hafi	-2533
▁kigo	-2534
▁kumu	-2535
▁kuru	-2536
▁nari	-2537
▁njye	-2538
▁turi	-2539
▁yite	-2540
▁ziri	-2541
ABANTU	-2542
BABAJE	-2543
CECEKA	-2544
ERTIFI	-2545
GABANE	-2546
GARURA	-2547
GURURA	-2548
IBINDI	-2549
MANOTA	-2550
SIFUZI	-2551
YOBORO	-2552
abantu	-2553
babaje	-2554
ceceka	-2555
gabane	-2556
garura	-2557
gurura	-2558
ibindi	-2559
manota	-2560
sifuzi	-2561
yoboro	-2562
▁11:25	-2563
▁12:04	-2564
▁12:26	-2565
▁AMAZE	-2566
▁BANKI	-2567
▁IMPUN	-2568
▁MUHAD	-2569
▁NUBWO	-2570
▁RWEGO	-2571
▁SPACE	-2572
▁Space	-2573
▁amaze	-2574
▁banki	-2575
▁nubwo	-2576
▁rwego	-2577
GUKANYE	-2578
GWANEZA	-2579
SHUSHAN	-2580
gukanye	-2581
hadjiri	-2582
shushan	-2583
tangaza	-2584
yambaga	-2585
▁BAGIYE	-2586
▁HAGATI	-2587
▁HAKUZW	-2588
▁HUAWEI	-2589
▁Huawei	-2590
▁IBINDI	-2591
▁KIYOVU	-2592
▁KUBAKA	-2593
▁Kiyovu	-2594
▁Mukuru	-2595
▁NANJYE	-2596
▁RACHID	-2597
▁RUBUGA	-2598
▁Rachid	-2599
▁TikTok	-2600
▁URETSE	-2601
▁YASEZE	-2602
▁YIHUTA	-2603
▁Yavuze	-2604
▁bagiye	-2605
▁hagati	-2606
▁ibindi	-2607
▁nanjye	-2608
▁nkoran	-2609
▁rubuga	-2610
▁yaseze	-2611
▁yihuta	-2612
TEKEREZA	-2613
YOBORERE	-2614
tekereza	-2615
yamakuru	-2616
yoborere	-2617
▁AMAHORO	-2618
▁AMAKIPE	-2619
▁BUTUMWA	-2620
▁CERTIFI	-2621
▁IBIBAZO	-2622
▁INYUNGU	-2623
▁JÉRÉMIE	-2624
▁Jérémie	-2625
▁KONGERA	-2626
▁MUHANZI	-2627
▁RUBANZA	-2628
▁RWEMEJE	-2629
▁WEBSITE	-2630
▁YouTube	-2631
▁amakipe	-2632
▁butumwa	-2633
▁ibibazo	-2634
▁inyungu	-2635
▁kongera	-2636
▁kwakira	-2637
▁muhanzi	-2638
▁rubanza	-2639
▁rwemeje	-2640
▁umukino	-2641
▁website	-2642
indirimbo	-2643
▁ASHOBORA	-2644
▁BIJYANYE	-2645
▁GUCECEKA	-2646
▁GUSHYIRA	-2647
▁ISANZURE	-2648
▁MURYANGO	-2649
▁NANDINDI	-2650
▁NKORANYA	-2651
▁USHOBORA	-2652
▁WAHISEMO	-2653
▁YAKOMEJE	-2654
▁YASABIWE	-2655
▁ashobora	-2656
▁bijyanye	-2657
▁guceceka	-2658
▁gushyira	-2659
▁isanzure	-2660
▁wahisemo	-2661
▁yasabiwe	-2662
▁ABASIFUZI	-2663
▁IGARAGAZA	-2664
▁MUHADJIRI	-2665
▁Muhadjiri	-2666
▁TUYISHIME	-2667
▁Umuyobozi	-2668
▁YATANGIYE	-2669
▁igaragaza	-2670
▁04/07/2024	-2671
▁10/06/2024	-2672
▁15/06/2024	-2673
▁20/06/2024	-2674
▁30/07/2024	-2675
▁UMUGWANEZA	-2676
▁yagaragaje	-2677
▁CERTIFICATE	-2678
▁HAKUZWUMUKIZA	-2679
▁NKORANYAMBAGA	-2680
▁nkoranyambaga	-2681
CO	-2682
EL	-2683
IS	-2684
In	-2685
LU	-2686
co	-2687
lo	-2688
lu	-2689
Aba	-2690
CES	-2691
CIA	-2692
INK	-2693
Igi	-2694
Iki	-2695
MAP	-2696
MVU	-2697
RIO	-2698
SUM	-2699
TIN	-2700
YWA	-2701
ces	-2702
igi	-2703
kwa	-2704
mvi	-2705
one	-2706
rio	-2707
sum	-2708
ywa	-2709
▁By	-2710
▁CH	-2711
▁Ch	-2712
▁DE	-2713
▁DI	-2714
▁Da	-2715
▁Fm	-2716
▁Go	-2717
▁IF	-2718
▁SO	-2719
▁Ta	-2720
▁UP	-2721
▁ZE	-2722
▁up	-2723
▁ze	-2724
ANCE	-2725
BABI	-2726
BUKA	-2727
CURU	-2728
GARA	-2729
GEJE	-2730
GERE	-2731
GIJE	-2732
GIZA	-2733
HOSA	-2734
INYA	-2735
KANO	-2736
KINA	-2737
KOMO	-2738
KOZI	-2739
MURA	-2740
NOMA	-2741
RASI	-2742
ROSH	-2743
SOKO	-2744
TERA	-2745
TORE	-2746
TOZA	-2747
VERI	-2748
WAMI	-2749
ZANA	-2750
ZUBA	-2751
ance	-2752
anga	-2753
anya	-2754
babi	-2755
buka	-2756
curu	-2757
geje	-2758
gere	-2759
gije	-2760
giza	-2761
icum	-2762
kano	-2763
komo	-2764
kozi	-2765
link	-2766
mura	-2767
noma	-2768
rosh	-2769
siga	-2770
soko	-2771
tera	-2772
tore	-2773
toza	-2774
umva	-2775
veri	-2776
wami	-2777
yuze	-2778
zuba	-2779
▁ABI	-2780
▁AME	-2781
▁AMU	-2782
▁ASA	-2783
▁IBA	-2784
▁Ira	-2785
▁Isi	-2786
▁MAN	-2787
▁NDI	-2788
▁NZI	-2789
▁Nda	-2790
▁UTA	-2791
▁WOR	-2792
▁Wor	-2793
▁abi	-2794
▁amu	-2795
▁asa	-2796
▁aya	-2797
▁man	-2798
▁ndi	-2799
▁nyi	-2800
▁nzi	-2801
▁sin	-2802
▁ugu	-2803
▁uta	-2804
BYEYI	-2805
GAMBA	-2806
HUNDA	-2807
Ikigo	-2808
KUNDO	-2809
MBURA	-2810
PAMVU	-2811
RANWA	-2812
RLINK	-2813
SABYE	-2814
TONDO	-2815
byeyi	-2816
gamba	-2817
hunda	-2818
hunze	-2819
kundo	-2820
mapho	-2821
mbura	-2822
pamvu	-2823
punzi	-2824
ranwa	-2825
sabye	-2826
tondo	-2827
▁AKAN	-2828
▁ANDY	-2829
▁Andy	-2830
▁BIHE	-2831
▁BIZA	-2832
▁Bose	-2833
▁GAHI	-2834
▁Gusa	-2835
▁KAYI	-2836
▁KERA	-2837
▁RIZA	-2838
▁THEO	-2839
▁Theo	-2840
▁UNDI	-2841
▁akan	-2842
▁bihe	-2843
▁imyi	-2844
▁inta	-2845
▁kera	-2846
▁kuva	-2847
▁riza	-2848
▁yahi	-2849
ABANDI	-2850
CATION	-2851
CURUZI	-2852
GIRIJE	-2853
IBANZE	-2854
IZINDI	-2855
KORAGA	-2856
MPINGA	-2857
ROSHYE	-2858
SHINWA	-2859
TEKANO	-2860
UBUNDI	-2861
UBURYO	-2862
UMWAKA	-2863
VUGAGA	-2864
WANJYE	-2865
YUJIJE	-2866
abandi	-2867
cation	-2868
curuzi	-2869
girije	-2870
hagara	-2871
ibanze	-2872
icumbi	-2873
izindi	-2874
koraga	-2875
mpinga	-2876
roshye	-2877
shinwa	-2878
tekano	-2879
ubundi	-2880
uburyo	-2881
umwaka	-2882
vugaga	-2883
▁ABANA	-2884
▁ABARI	-2885
▁ATARI	-2886
▁ATAZI	-2887
▁IFOTO	-2888
▁IGERA	-2889
▁IMAZE	-2890
▁MBUGA	-2891
▁MPERA	-2892
▁MUNYA	-2893
▁MWIZA	-2894
▁MYAKA	-2895
▁NIYON	-2896
▁Niyon	-2897
▁RAMAP	-2898
▁UBONA	-2899
▁abana	-2900
▁abari	-2901
▁atari	-2902
▁atazi	-2903
▁cyamu	-2904
▁ifoto	-2905
▁igera	-2906
▁imaze	-2907
▁mbuga	-2908
▁mpera	-2909
▁mwiza	-2910
▁myaka	-2911
▁nyina	-2912
▁ubona	-2913
GANZIRA	-2914
GARUTSE	-2915
RANGIYE	-2916
SHYIRWA	-2917
SUMBUYE	-2918
TANDATU	-2919
TANGAZA	-2920
TANGIZA	-2921
UMUPIRA	-2922
YONYINE	-2923
amaguru	-2924
ganzira	-2925
garutse	-2926
maphosa	-2927
rangiye	-2928
shyirwa	-2929
sumbuye	-2930
tandatu	-2931
tangiza	-2932
yonyine	-2933
▁AZAJYA	-2934
▁BATANU	-2935
▁BITEWE	-2936
▁BITUMA	-2937
▁GATATU	-2938
▁GUVERI	-2939
▁IZINDI	-2940
▁KUREBA	-2941
▁Kugeza	-2942
▁MANOTA	-2943
▁MWANYA	-2944
▁SPACEX	-2945
▁SpaceX	-2946
▁UBUMWE	-2947
▁UBUNDI	-2948
▁YABAYE	-2949
▁YASOJE	-2950
▁Yagize	-2951
▁ZIRIMO	-2952
▁azajya	-2953
▁batanu	-2954
▁bitewe	-2955
▁bituma	-2956
▁izindi	-2957
▁kubaka	-2958
▁kureba	-2959
▁manota	-2960
▁mwanya	-2961
▁uretse	-2962
▁yabaye	-2963
▁yasoje	-2964
▁zirimo	-2965
BABIREBA	-2966
FASHISHA	-2967
GENZURWA	-2968
GERAGEJE	-2969
UMUHANZI	-2970
YAMERIKA	-2971
babireba	-2972
fashisha	-2973
genzurwa	-2974
gerageje	-2975
tekerezo	-2976
ubuhinzi	-2977
verinoma	-2978
▁ADDRESS	-2979
▁BABONYE	-2980
▁BUHINZI	-2981
▁GAHUNDA	-2982
▁GICUMBI	-2983
▁GITONDO	-2984
▁GUSHORA	-2985
▁Gicumbi	-2986
▁IKIBAZO	-2987
▁IMINARA	-2988
▁IMPUNZI	-2989
▁NYOBOZI	-2990
▁Nyobozi	-2991
▁UMWANYA	-2992
▁address	-2993
▁babonye	-2994
▁buhinzi	-2995
▁gahunda	-2996
▁gitondo	-2997
▁gushora	-2998
▁rusange	-2999
▁umugabo	-3000
▁umwanya	-3001
SHORAMARI	-3002
TANDUKANA	-3003
UMUYOBOZI	-3004
shoramari	-3005
tandukana	-3006
▁BAFUNGWA	-3007
▁BIKOMEYE	-3008
▁BUSHINWA	-3009
▁Bushinwa	-3010
▁IBIKORWA	-3011
▁KUGARURA	-3012
▁MUGABANE	-3013
▁STARLINK	-3014
▁Starlink	-3015
▁Yakomeje	-3016
▁bafungwa	-3017
▁bikomeye	-3018
▁ibikorwa	-3019
▁muryango	-3020
MUKURIKIRA	-3021
mukurikira	-3022
▁BAKORESHA	-3023
▁IGITARAMO	-3024
▁Indirimbo	-3025
▁RAMAPHOSA	-3026
▁Ramaphosa	-3027
▁UMUSARURO	-3028
▁YASHYIZWE	-3029
▁YEGUKANYE	-3030
▁bakoresha	-3031
▁igitaramo	-3032
▁ubuyobozi	-3033
▁umusaruro	-3034
▁yatangiye	-3035
▁yegukanye	-3036
IMIYOBORERE	-3037
banyamerika	-3038
▁GUVERINOMA	-3039
▁KUGARAGAZA	-3040
▁KUVUGURURA	-3041
▁YASOBANUYE	-3042
▁YISHYIZEHO	-3043
▁kugaragaza	-3044
▁kuvugurura	-3045
▁yasobanuye	-3046
▁yishyizeho	-3047
▁IGITEKEREZO	-3048
▁BITANDUKANYE	-3049
▁BOSEBABIREBA	-3050
▁Bosebabireba	-3051
$.	-3052
09	-3053
15	-3054
9,	-3055
AC	-3056
AM	-3057
CR	-3058
EP	-3059
GN	-3060
OU	-3061
RY	-3062
SC	-3063
SK	-3064
al	-3065
ea	-3066
gn	-3067
of	-3068
qu	-3069
ry	-3070
sc	-3071
▁&	-3072
▁s	-3073
▁|	-3074
.97	-3075
1.2	-3076
:30	-3077
AGU	-3078
AKA	-3079
CAS	-3080
DAN	-3081
DER	-3082
IYI	-3083
IYO	-3084
LON	-3085
MPA	-3086
MVI	-3087
NDE	-3088
Nya	-3089
ONS	-3090
RED	-3091
RWO	-3092
SES	-3093
TWE	-3094
UGA	-3095
UGU	-3096
Ubu	-3097
agu	-3098
cas	-3099
der	-3100
iyi	-3101
mpa	-3102
nde	-3103
ons	-3104
pan	-3105
red	-3106
rwo	-3107
ses	-3108
sra	-3109
ssa	-3110
teD	-3111
twe	-3112
ugu	-3113
▁06	-3114
▁17	-3115
▁21	-3116
▁27	-3117
▁28	-3118
▁35	-3119
▁43	-3120
▁63	-3121
▁65	-3122
▁7.	-3123
▁AB	-3124
▁Ab	-3125
▁Di	-3126
▁HO	-3127
▁ID	-3128
▁IS	-3129
▁JU	-3130
▁Ja	-3131
▁Ju	-3132
▁LA	-3133
▁MC	-3134
▁OR	-3135
▁Ro	-3136
▁WI	-3137
▁Ye	-3138
▁he	-3139
▁or	-3140
▁pe	-3141
▁re	-3142
.108	-3143
AGUE	-3144
BIMU	-3145
CAKU	-3146
GAHE	-3147
GEKO	-3148
GENE	-3149
GEYE	-3150
GIZI	-3151
GOYE	-3152
GUZI	-3153
HAMA	-3154
HARA	-3155
HARE	-3156
HUJE	-3157
IKIN	-3158
KEZI	-3159
KIYE	-3160
KORO	-3161
LIGI	-3162
MBAN	-3163
MEZA	-3164
NAKA	-3165
RALI	-3166
RAMO	-3167
RERA	-3168
RICK	-3169
SCRI	-3170
SIGA	-3171
SUZU	-3172
TABA	-3173
TAHA	-3174
TEGU	-3175
TERO	-3176
TOZO	-3177
UBWE	-3178
UMWE	-3179
WUGA	-3180
YUBA	-3181
ZAZA	-3182
ZERA	-3183
ague	-3184
bili	-3185
bimu	-3186
caku	-3187
gahe	-3188
gene	-3189
geye	-3190
gizi	-3191
goye	-3192
guzi	-3193
hama	-3194
hara	-3195
hare	-3196
higo	-3197
huje	-3198
ikin	-3199
kiye	-3200
kiza	-3201
mbye	-3202
meye	-3203
meza	-3204
naka	-3205
ppli	-3206
rali	-3207
ramu	-3208
rasi	-3209
rera	-3210
rick	-3211
scri	-3212
suzu	-3213
taba	-3214
taha	-3215
tare	-3216
tegu	-3217
tero	-3218
tozo	-3219
ubwe	-3220
umwe	-3221
yuba	-3222
zana	-3223
zaza	-3224
zera	-3225
▁100	-3226
▁500	-3227
▁AFC	-3228
▁AGI	-3229
▁AYO	-3230
▁AZI	-3231
▁Bya	-3232
▁CAN	-3233
▁CHA	-3234
▁Cha	-3235
▁HCR	-3236
▁IBY	-3237
▁IDC	-3238
▁IGA	-3239
▁Kan	-3240
▁MBO	-3241
▁MBU	-3242
▁Mbo	-3243
▁NZA	-3244
▁REG	-3245
▁TWE	-3246
▁Twa	-3247
▁UGA	-3248
▁UZA	-3249
▁YVE	-3250
▁Yve	-3251
▁agi	-3252
▁azi	-3253
▁ena	-3254
▁iba	-3255
▁iby	-3256
▁iga	-3257
▁iya	-3258
▁izi	-3259
▁mbu	-3260
▁nya	-3261
▁twe	-3262
▁uga	-3263
▁uwa	-3264
1.216	-3265
AMADO	-3266
ANAMA	-3267
BANGA	-3268
BASHA	-3269
BWIYE	-3270
BYAYE	-3271
DITSE	-3272
GENZE	-3273
HUNZE	-3274
INEMA	-3275
MBARA	-3276
MUNTU	-3277
MWERU	-3278
NGELI	-3279
NYINE	-3280
ORCAS	-3281
RIOTS	-3282
RITSE	-3283
RWAHO	-3284
SHEJA	-3285
SHUYE	-3286
TORWA	-3287
amado	-3288
anama	-3289
banga	-3290
basha	-3291
bwiye	-3292
byaye	-3293
genze	-3294
gingo	-3295
ikigo	-3296
inema	-3297
ingwa	-3298
mbara	-3299
mweru	-3300
ngeli	-3301
nyine	-3302
orcas	-3303
riots	-3304
ritse	-3305
rwaho	-3306
sheja	-3307
shuye	-3308
torwa	-3309
▁1000	-3310
▁1:30	-3311
▁2014	-3312
▁2017	-3313
▁2:22	-3314
▁4:15	-3315
▁AUGU	-3316
▁Augu	-3317
▁BAVU	-3318
▁GITO	-3319
▁GUCA	-3320
▁GUHE	-3321
▁HABA	-3322
▁HAKI	-3323
▁HANO	-3324
▁HAVE	-3325
▁Haki	-3326
▁ICYA	-3327
▁ISHI	-3328
▁Kayi	-3329
▁Kuri	-3330
▁MAKE	-3331
▁MASE	-3332
▁MURA	-3333
▁MUTO	-3334
▁Mase	-3335
▁NABA	-3336
▁NAMA	-3337
▁PAGE	-3338
▁RIRI	-3339
▁RURI	-3340
▁RUTA	-3341
▁SIGN	-3342
▁TUBA	-3343
▁UZWI	-3344
▁WAMU	-3345
▁YABI	-3346
▁YAJE	-3347
▁ZOSE	-3348
▁gito	-3349
▁guca	-3350
▁haba	-3351
▁have	-3352
▁muto	-3353
▁nama	-3354
▁page	-3355
▁riri	-3356
▁ruri	-3357
▁sign	-3358
▁tuba	-3359
▁undi	-3360
▁uzwi	-3361
▁yabi	-3362
▁yaje	-3363
▁zose	-3364
GAMIJE	-3365
HAMAGA	-3366
HORALE	-3367
IMBERE	-3368
IMINSI	-3369
KENEYE	-3370
KINIYE	-3371
KOMOKO	-3372
KOREYE	-3373
KUNZWE	-3374
MPIONS	-3375
RANIRA	-3376
RATION	-3377
REKEJE	-3378
REMEZO	-3379
RESSES	-3380
RIMBYE	-3381
SHATSE	-3382
SHINJA	-3383
SHYIGI	-3384
UMUNTU	-3385
URWEGO	-3386
Umunya	-3387
VUGIZI	-3388
ZINGWA	-3389
biligi	-3390
gamije	-3391
hamaga	-3392
hembwa	-3393
horale	-3394
huriro	-3395
iminsi	-3396
injira	-3397
keneye	-3398
kiniye	-3399
komoko	-3400
koreye	-3401
kunzwe	-3402
mpions	-3403
ranira	-3404
ration	-3405
rekeje	-3406
remezo	-3407
resses	-3408
rimbye	-3409
shatse	-3410
shinja	-3411
shyigi	-3412
vugizi	-3413
▁APPLI	-3414
▁BIMWE	-3415
▁BOMBI	-3416
▁BYTED	-3417
▁ByteD	-3418
▁CHRIS	-3419
▁Chris	-3420
▁IBIHE	-3421
▁INAMA	-3422
▁INTWA	-3423
▁IZINA	-3424
▁KENZA	-3425
▁KUJYA	-3426
▁Kenza	-3427
▁Kimwe	-3428
▁MEDDY	-3429
▁MINSI	-3430
▁Meddy	-3431
▁NZEGO	-3432
▁NZIZA	-3433
▁Nyuma	-3434
▁ORDER	-3435
▁UKORA	-3436
▁UWASE	-3437
▁UZABA	-3438
▁Uwase	-3439
▁WENDA	-3440
▁YOMBI	-3441
▁bimwe	-3442
▁binyu	-3443
▁bombi	-3444
▁ibihe	-3445
▁inama	-3446
▁intwa	-3447
▁izina	-3448
▁kujya	-3449
▁minsi	-3450
▁nzego	-3451
▁nziza	-3452
▁order	-3453
▁ukora	-3454
▁uzaba	-3455
▁wenda	-3456
▁yombi	-3457
.108.97	-3458
AMAHORO	-3459
Amahoro	-3460
BIKORWA	-3461
FATANYA	-3462
GOMBAGA	-3463
NGIRIJE	-3464
TEGANYA	-3465
UBUZIMA	-3466
UBWENGE	-3467
UMUGORE	-3468
YANDIKO	-3469
YUMWERU	-3470
bikorwa	-3471
fatanya	-3472
gombaga	-3473
hindura	-3474
ngirije	-3475
tection	-3476
teganya	-3477
ubuzima	-3478
ubwenge	-3479
umugore	-3480
yandiko	-3481
yumweru	-3482
▁41.216	-3483
▁AGOMBA	-3484
▁AKANDI	-3485
▁BAGABO	-3486
▁BAKOZE	-3487
▁BAMAZE	-3488
▁BASEZE	-3489
▁BIBAZO	-3490
▁BIRIMO	-3491
▁ENABLE	-3492
▁GUHITA	-3493
▁GUTAHA	-3494
▁HEJURU	-3495
▁IKINDI	-3496
▁IMFURA	-3497
▁ISHEJA	-3498
▁ISHIZE	-3499
▁IZAJYA	-3500
▁Isheja	-3501
▁KAGAME	-3502
▁KANAMA	-3503
▁KWINJI	-3504
▁Kanama	-3505
▁LEAGUE	-3506
▁League	-3507
▁MBONYI	-3508
▁Mbonyi	-3509
▁NGOMBA	-3510
▁NTACYO	-3511
▁Ntabwo	-3512
▁POLICE	-3513
▁Police	-3514
▁RUGERO	-3515
▁RUNAKA	-3516
▁SINEMA	-3517
▁Sinema	-3518
▁UBUKWE	-3519
▁URWEGO	-3520
▁Umunya	-3521
▁YAGIYE	-3522
▁YAHISE	-3523
▁YAMAZE	-3524
▁YANJYE	-3525
▁YIFUZA	-3526
▁agomba	-3527
▁akandi	-3528
▁bagabo	-3529
▁bakoze	-3530
▁bamaze	-3531
▁baseze	-3532
▁bibazo	-3533
▁birimo	-3534
▁enable	-3535
▁guhita	-3536
▁gutaha	-3537
▁hejuru	-3538
▁imfura	-3539
▁ishize	-3540
▁itanga	-3541
▁izajya	-3542
▁ngomba	-3543
▁ntacyo	-3544
▁rugero	-3545
▁runaka	-3546
▁ubukwe	-3547
▁ubundi	-3548
▁yagiye	-3549
▁yahise	-3550
▁yamaze	-3551
▁yifuza	-3552
CAKUBIRI	-3553
HAGARIKA	-3554
IBIHUMBI	-3555
cakubiri	-3556
hagarika	-3557
ibihumbi	-3558
umuhanzi	-3559
▁AGACIRO	-3560
▁AMANOTA	-3561
▁AMATEKA	-3562
▁Amahoro	-3563
▁BAKAJYA	-3564
▁BIHUMBI	-3565
▁BUMUNTU	-3566
▁Bumuntu	-3567
▁CHORALE	-3568
▁CYOREZO	-3569
▁Chorale	-3570
▁GUFASHA	-3571
▁ITSINDA	-3572
▁KURUSHA	-3573
▁MAHIRWE	-3574
▁NDEKEZI	-3575
▁NYINSHI	-3576
▁PROTECT	-3577
▁RUHANDE	-3578
▁UKOMEYE	-3579
▁UMUBARE	-3580
▁UMUGORE	-3581
▁UMUSORE	-3582
▁YASABYE	-3583
▁agaciro	-3584
▁amanota	-3585
▁bakajya	-3586
▁bihumbi	-3587
▁cyorezo	-3588
▁gufasha	-3589
▁iminara	-3590
▁itsinda	-3591
▁kurusha	-3592
▁mahirwe	-3593
▁nyinshi	-3594
▁protect	-3595
▁ruhande	-3596
▁ukomeye	-3597
▁umugore	-3598
▁yasabye	-3599
AMATEGEKO	-3600
amategeko	-3601
umuyobozi	-3602
▁BIGANIRO	-3603
▁BUBILIGI	-3604
▁BUYOBOZI	-3605
▁Bubiligi	-3606
▁GIHEMBWE	-3607
▁GITARAMO	-3608
▁INGARUKA	-3609
▁INKOMOKO	-3610
▁INTAMBWE	-3611
▁KUYOBORA	-3612
▁MATSINDA	-3613
▁PATRIOTS	-3614
▁Patriots	-3615
▁UBUTUMWA	-3616
▁YAVUGAGA	-3617
▁biganiro	-3618
▁buyobozi	-3619
▁gihembwe	-3620
▁gitaramo	-3621
▁ingaruka	-3622
▁inkomoko	-3623
▁intambwe	-3624
▁kugarura	-3625
▁kuyobora	-3626
▁matsinda	-3627
▁ubutumwa	-3628
▁umuhanzi	-3629
▁ushobora	-3630
▁yavugaga	-3631
MENYEKANYE	-3632
RENGANZIRA	-3633
SHIMISHIJE	-3634
TEGANYIJWE	-3635
menyekanye	-3636
pplication	-3637
renganzira	-3638
shimishije	-3639
▁ABATURAGE	-3640
▁ABAYOBOZI	-3641
▁ADDRESSES	-3642
▁Abasifuzi	-3643
▁BATANGIYE	-3644
▁BYTEDANCE	-3645
▁ByteDance	-3646
▁CHAMPIONS	-3647
▁Champions	-3648
▁MASENGELI	-3649
▁MURANGIRA	-3650
▁Masengeli	-3651
▁Murangira	-3652
▁NYARWANDA	-3653
▁Nyarwanda	-3654
▁UMUVUGIZI	-3655
▁Umuvugizi	-3656
▁YAGARUTSE	-3657
▁YAHISHUYE	-3658
▁Yashyizwe	-3659
▁abaturage	-3660
▁abayobozi	-3661
▁addresses	-3662
▁batangiye	-3663
▁yagarutse	-3664
▁yahishuye	-3665
imiyoborere	-3666
▁13/07/2024	-3667
▁18/06/2024	-3668
▁IBYOGAJURU	-3669
▁PROTECTION	-3670
▁Protection	-3671
▁guverinoma	-3672
▁ibyogajuru	-3673
▁APPLICATION	-3674
▁CYAMUBABAJE	-3675
▁cyamubabaje	-3676
▁ABANYAMERIKA	-3677
▁Abanyamerika	-3678
▁bitandukanye	-3679
▁41.216.108.97	-3680
AU	-3681
Al	-3682
HN	-3683
IR	-3684
Ic	-3685
ND	-3686
NI	-3687
PT	-3688
RT	-3689
UR	-3690
am	-3691
as	-3692
aw	-3693
ee	-3694
hn	-3695
ll	-3696
pt	-3697
rt	-3698
up	-3699
UP	-3700
ur	-3701
AVA	-3702
Aka	-3703
BUM	-3704
BWE	-3705
CEL	-3706
DEN	-3707
EEP	-3708
FOR	-3709
GWE	-3710
HUI	-3711
ISI	-3712
Imi	-3713
JON	-3714
LUB	-3715
LUO	-3716
MIT	-3717
ODO	-3718
ONE	-3719
PAN	-3720
RON	-3721
SED	-3722
SHY	-3723
SSA	-3724
SSI	-3725
STA	-3726
SYI	-3727
TSO	-3728
TTE	-3729
ZAN	-3730
aga	-3731
bum	-3732
bwe	-3733
cyu	-3734
dan	-3735
den	-3736
eau	-3737
eep	-3738
for	-3739
gna	-3740
gwe	-3741
hem	-3742
hui	-3743
iya	-3744
iye	-3745
iyo	-3746
jon	-3747
lon	-3748
luo	-3749
pfa	-3750
que	-3751
ron	-3752
sed	-3753
shy	-3754
ssi	-3755
sso	-3756
sta	-3757
syi	-3758
tso	-3759
tte	-3760
▁Af	-3761
▁Ci	-3762
▁Co	-3763
▁Cy	-3764
▁De	-3765
▁Do	-3766
▁Et	-3767
▁FE	-3768
▁GE	-3769
▁Ge	-3770
▁Gi	-3771
▁Ho	-3772
▁Nk	-3773
▁Ny	-3774
▁RO	-3775
▁So	-3776
▁VA	-3777
▁Va	-3778
▁ZU	-3779
▁Zu	-3780
▁an	-3781
▁de	-3782
▁do	-3783
▁le	-3784
▁of	-3785
▁vi	-3786
▁wi	-3787
AUTY	-3788
BAZA	-3789
BERT	-3790
BUKI	-3791
CURI	-3792
GABI	-3793
GAJU	-3794
HERE	-3795
ICYI	-3796
IVAN	-3797
Icyi	-3798
JORA	-3799
JUJE	-3800
KABA	-3801
KANE	-3802
KAWA	-3803
LICI	-3804
MERO	-3805
MEZO	-3806
MURE	-3807
PAKA	-3808
PAPU	-3809
RAEL	-3810
RAMU	-3811
REBE	-3812
RIRI	-3813
RIZE	-3814
RURA	-3815
SAHA	-3816
SHEN	-3817
SIRI	-3818
SIYE	-3819
SIZI	-3820
SOMA	-3821
SOZA	-3822
STER	-3823
TABO	-3824
TARE	-3825
TEEN	-3826
TEGO	-3827
TIKE	-3828
TSWE	-3829
WANA	-3830
YABO	-3831
YEMO	-3832
YUKA	-3833
ZEGO	-3834
ZIKI	-3835
ZUYE	-3836
baza	-3837
bert	-3838
biko	-3839
buki	-3840
curi	-3841
dewo	-3842
doka	-3843
gabi	-3844
gaju	-3845
geko	-3846
here	-3847
inda	-3848
ivan	-3849
jora	-3850
juje	-3851
kaba	-3852
kane	-3853
kawa	-3854
lici	-3855
lles	-3856
mero	-3857
mezo	-3858
mure	-3859
paka	-3860
papu	-3861
ramo	-3862
rava	-3863
rebe	-3864
rize	-3865
rura	-3866
saha	-3867
siri	-3868
siye	-3869
sizi	-3870
soma	-3871
soza	-3872
ster	-3873
tabo	-3874
teen	-3875
teko	-3876
tike	-3877
tswe	-3878
vamo	-3879
yemo	-3880
yuka	-3881
ziki	-3882
zuye	-3883
▁ABO	-3884
▁ADA	-3885
▁AYI	-3886
▁Aga	-3887
▁BEN	-3888
▁BYE	-3889
▁Ben	-3890
▁CLA	-3891
▁CUP	-3892
▁Cup	-3893
▁GAB	-3894
▁GEN	-3895
▁Gab	-3896
▁IHU	-3897
▁IRU	-3898
▁IZO	-3899
▁Izi	-3900
▁LAW	-3901
▁Law	-3902
▁MEL	-3903
▁MYI	-3904
▁Mel	-3905
▁PER	-3906
▁Per	-3907
▁RWI	-3908
▁UDU	-3909
▁UWO	-3910
▁YAM	-3911
▁abo	-3912
▁ada	-3913
▁ayi	-3914
▁ayo	-3915
▁bin	-3916
▁imo	-3917
▁ira	-3918
▁iru	-3919
▁izo	-3920
▁myi	-3921
▁nza	-3922
▁udu	-3923
▁uza	-3924
▁wan	-3925
▁yam	-3926
ABANA	-3927
BYARA	-3928
BYAZA	-3929
GAMBO	-3930
GANDA	-3931
GENDO	-3932
GIZWE	-3933
GUNGA	-3934
IDEWO	-3935
IKINI	-3936
JYAGA	-3937
KEKWA	-3938
KUNTU	-3939
LUOCH	-3940
MANZI	-3941
ODOKA	-3942
RENCE	-3943
RENZE	-3944
RICAN	-3945
RILLA	-3946
RISTO	-3947
RWAMO	-3948
SANGA	-3949
SHAKI	-3950
SHIKA	-3951
SHURO	-3952
SHUTI	-3953
SHYAN	-3954
SINYA	-3955
SOCIA	-3956
TABYE	-3957
TANYE	-3958
TSIKO	-3959
abana	-3960
byara	-3961
byaza	-3962
eauty	-3963
gambo	-3964
ganda	-3965
gendo	-3966
gizwe	-3967
gunga	-3968
hango	-3969
ikini	-3970
iriza	-3971
jyaga	-3972
kekwa	-3973
kuntu	-3974
luoch	-3975
manzi	-3976
mbere	-3977
rence	-3978
renze	-3979
rican	-3980
rilla	-3981
risto	-3982
rwamo	-3983
sanga	-3984
shaki	-3985
shika	-3986
shuro	-3987
shuti	-3988
shyan	-3989
sinya	-3990
srael	-3991
tabye	-3992
tanye	-3993
tsiko	-3994
vugwa	-3995
▁ACCE	-3996
▁ATAN	-3997
▁Asso	-3998
▁BABI	-3999
▁BAGA	-4000
▁BAGI	-4001
▁BAHA	-4002
▁BARA	-4003
▁BASA	-4004
▁BATI	-4005
▁BATO	-4006
▁BAZI	-4007
▁BITU	-4008
▁CLUB	-4009
▁CONF	-4010
▁Club	-4011
▁Conf	-4012
▁DIVA	-4013
▁Diva	-4014
▁ETIN	-4015
▁GUHA	-4016
▁HABI	-4017
▁IBYI	-4018
▁ICYE	-4019
▁IJON	-4020
▁Icyo	-4021
▁Ikin	-4022
▁JOHN	-4023
▁John	-4024
▁KANE	-4025
▁KAZI	-4026
▁KEEP	-4027
▁KIBA	-4028
▁KIRI	-4029
▁KUDA	-4030
▁KUTA	-4031
▁KUZI	-4032
▁MATA	-4033
▁MISS	-4034
▁MUGO	-4035
▁Mata	-4036
▁Miss	-4037
▁NAYI	-4038
▁RERO	-4039
▁SASA	-4040
▁SINA	-4041
▁Sasa	-4042
▁THAT	-4043
▁WARA	-4044
▁WORD	-4045
▁Word	-4046
▁YAGU	-4047
▁YAKU	-4048
▁YAYO	-4049
▁YOSE	-4050
▁YUBA	-4051
▁atan	-4052
▁babi	-4053
▁baga	-4054
▁bagi	-4055
▁bana	-4056
▁bara	-4057
▁basa	-4058
▁bato	-4059
▁bazi	-4060
▁bitu	-4061
▁biza	-4062
▁ibyi	-4063
▁icya	-4064
▁icye	-4065
▁ijon	-4066
▁kazi	-4067
▁kiba	-4068
▁kiri	-4069
▁kuda	-4070
▁kuta	-4071
▁kuzi	-4072
▁leta	-4073
▁mugo	-4074
▁naba	-4075
▁nayi	-4076
▁that	-4077
▁wara	-4078
▁yagu	-4079
▁yayo	-4080
▁yose	-4081
▁yuba	-4082
BAYEHO	-4083
BIRIWE	-4084
BONEKA	-4085
CELLES	-4086
CESSED	-4087
CURITY	-4088
FASHWE	-4089
GAHENE	-4090
GERAHO	-4091
GEREZA	-4092
HAGARA	-4093
HAGAZE	-4094
HEMBWA	-4095
HEREYE	-4096
HEREZA	-4097
HORAHO	-4098
HUISEN	-4099
INGABO	-4100
JIRIZA	-4101
KANYWE	-4102
KENEWE	-4103
LLAMAN	-4104
PAPURO	-4105
RARANE	-4106
REKEYE	-4107
SIYETE	-4108
TARAMA	-4109
TEGUYE	-4110
TSINDI	-4111
UMUNSI	-4112
YOBOWE	-4113
YUZEMO	-4114
bayeho	-4115
biriwe	-4116
boneka	-4117
cessed	-4118
curity	-4119
fashwe	-4120
gahene	-4121
geraho	-4122
gereza	-4123
hagaze	-4124
herere	-4125
hereye	-4126
horaho	-4127
huisen	-4128
ingana	-4129
kanywe	-4130
kenewe	-4131
kiriza	-4132
llaman	-4133
papuro	-4134
rarane	-4135
rekeye	-4136
shiman	-4137
siyete	-4138
tarama	-4139
teguye	-4140
tsindi	-4141
umunsi	-4142
urwego	-4143
yobowe	-4144
yujije	-4145
yuzemo	-4146
zingwa	-4147
▁AGIYE	-4148
▁AKIRI	-4149
▁ARIMO	-4150
▁ASABA	-4151
▁ATAZA	-4152
▁AVUYE	-4153
▁CYAHA	-4154
▁CYARI	-4155
▁GUCYA	-4156
▁IBIRI	-4157
▁IRIMO	-4158
▁ISOKO	-4159
▁ITIKE	-4160
▁Ikipe	-4161
▁JOHAN	-4162
▁JULES	-4163
▁Johan	-4164
▁Jules	-4165
▁KANYA	-4166
▁KONGE	-4167
▁KUMVA	-4168
▁MANDA	-4169
▁MFITE	-4170
▁MUHAN	-4171
▁MUJYI	-4172
▁MUNTU	-4173
▁NABWO	-4174
▁NGIYE	-4175
▁NIBWO	-4176
▁NKURU	-4177
▁NSHIN	-4178
▁NYIRA	-4179
▁Nkuru	-4180
▁STADE	-4181
▁STEEN	-4182
▁Stade	-4183
▁Steen	-4184
▁TWAYI	-4185
▁UKURI	-4186
▁VALEN	-4187
▁Valen	-4188
▁YABAN	-4189
▁YANGA	-4190
▁YATUN	-4191
▁YENDA	-4192
▁YITWA	-4193
▁ZIMWE	-4194
▁ZINDI	-4195
▁ZUNZE	-4196
▁Zunze	-4197
▁agiye	-4198
▁akiri	-4199
▁arimo	-4200
▁asaba	-4201
▁ataza	-4202
▁avuye	-4203
▁cyaha	-4204
▁gucya	-4205
▁ibiri	-4206
▁irimo	-4207
▁isoko	-4208
▁itike	-4209
▁kanya	-4210
▁konge	-4211
▁kumva	-4212
▁manda	-4213
▁mfite	-4214
▁muntu	-4215
▁nabwo	-4216
▁ngiye	-4217
▁nibwo	-4218
▁nyira	-4219
▁twayi	-4220
▁ukuri	-4221
▁umuko	-4222
▁yaban	-4223
▁yanga	-4224
▁yatun	-4225
▁yenda	-4226
▁yitwa	-4227
▁zindi	-4228
ABAGORE	-4229
AKARERE	-4230
BYIBUKA	-4231
GANISHA	-4232
GENZURA	-4233
HANGANO	-4234
IKINIGA	-4235
ITEGEKO	-4236
MABANGA	-4237
MUKUNDA	-4238
NGEREZA	-4239
REKANYE	-4240
SHAHARA	-4241
SHOBOKA	-4242
SHYAMBA	-4243
SIMBURA	-4244
TSINDWA	-4245
UBUREZI	-4246
YURANYE	-4247
ZAMUSYI	-4248
abagore	-4249
byibuka	-4250
ciation	-4251
ganisha	-4252
genzura	-4253
hangano	-4254
ikiniga	-4255
ingenzi	-4256
mabanga	-4257
mukunda	-4258
mvikana	-4259
rekanye	-4260
shahara	-4261
shoboka	-4262
shyamba	-4263
simbura	-4264
tsindwa	-4265
umupira	-4266
zamusyi	-4267
▁BAGIRA	-4268
▁BAKORA	-4269
▁BASHYA	-4270
▁BATATU	-4271
▁BEAUTY	-4272
▁BIREME	-4273
▁BYARAN	-4274
▁Beauty	-4275
▁DORCAS	-4276
▁Dorcas	-4277
▁Etince	-4278
▁GAHIGO	-4279
▁GATANU	-4280
▁GUFATA	-4281
▁GUKURA	-4282
▁GUTUMA	-4283
▁Gatatu	-4284
▁HARIYA	-4285
▁HAZABA	-4286
▁IBYAHA	-4287
▁INYUMA	-4288
▁ITWARA	-4289
▁KRISTO	-4290
▁KWANDI	-4291
▁Kristo	-4292
▁MBUMBE	-4293
▁MISIRI	-4294
▁MURAVA	-4295
▁Misiri	-4296
▁Murava	-4297
▁NAGAJU	-4298
▁NIBURA	-4299
▁NTIBYA	-4300
▁Nagaju	-4301
▁OLUOCH	-4302
▁Oluoch	-4303
▁RUSIZI	-4304
▁Rusizi	-4305
▁TURIMO	-4306
▁Tariki	-4307
▁UKUNTU	-4308
▁UMWAMI	-4309
▁UMWUGA	-4310
▁USHAKA	-4311
▁Ubumwe	-4312
▁Umwaka	-4313
▁VIDEWO	-4314
▁WABAYE	-4315
▁YAGEZE	-4316
▁YAHAYE	-4317
▁YAKOZE	-4318
▁ZIFITE	-4319
▁bagira	-4320
▁bakora	-4321
▁bashya	-4322
▁batatu	-4323
▁bireme	-4324
▁byaran	-4325
▁gahigo	-4326
▁gufata	-4327
▁gukura	-4328
▁gutuma	-4329
▁hariya	-4330
▁hazaba	-4331
▁ibyaha	-4332
▁inyuma	-4333
▁itwara	-4334
▁kwandi	-4335
▁mbumbe	-4336
▁nibura	-4337
▁ntibya	-4338
▁turimo	-4339
▁ukuntu	-4340
▁umwuga	-4341
▁urwego	-4342
▁ushaka	-4343
▁videwo	-4344
▁wabaye	-4345
▁yageze	-4346
▁yahaye	-4347
▁yakoze	-4348
▁yanjye	-4349
▁zifite	-4350
HANGANYE	-4351
IGIKOMBE	-4352
IVANGURA	-4353
SEZERANO	-4354
SHIMISHA	-4355
SHINGIYE	-4356
SHISHIKA	-4357
SHYIRAMO	-4358
SOBANURA	-4359
TABIRIWE	-4360
UKWAKIRA	-4361
Ukwakira	-4362
ganyijwe	-4363
hanganye	-4364
haranira	-4365
injiriza	-4366
ivangura	-4367
ririmbwe	-4368
sezerano	-4369
shimisha	-4370
shingiye	-4371
shishika	-4372
shyiramo	-4373
sobanura	-4374
tabiriwe	-4375
wamikazi	-4376
▁ABARIMO	-4377
▁AFRICAN	-4378
▁AKAZIGA	-4379
▁AMAJORO	-4380
▁AMATORA	-4381
▁ASSOCIA	-4382
▁African	-4383
▁BAKOBWA	-4384
▁BONGEYE	-4385
▁BWANJYE	-4386
▁GASHYAN	-4387
▁GIKOMBE	-4388
▁GORILLA	-4389
▁GUHABWA	-4390
▁Gashyan	-4391
▁Gorilla	-4392
▁HASHIZE	-4393
▁IGIHUGU	-4394
▁IKOMEYE	-4395
▁IMIBARE	-4396
▁IMODOKA	-4397
▁IMPAMVU	-4398
▁ISANZWE	-4399
▁ITEGEKO	-4400
▁KUGABAN	-4401
▁MUGUNGA	-4402
▁Mugunga	-4403
▁NYAMARA	-4404
▁RUGAMBA	-4405
▁RUGENDO	-4406
▁Rugamba	-4407
▁UBUREZI	-4408
▁UKUGIRA	-4409
▁UMUPIRA	-4410
▁UMUTIMA	-4411
▁UMUZIKI	-4412
▁URUHARE	-4413
▁UWAHOZE	-4414
▁WENYINE	-4415
▁YABONYE	-4416
▁akaziga	-4417
▁amajoro	-4418
▁amateka	-4419
▁amatora	-4420
▁bakobwa	-4421
▁bashaka	-4422
▁bongeye	-4423
▁bwanjye	-4424
▁gikombe	-4425
▁guhabwa	-4426
▁hashize	-4427
▁igihugu	-4428
▁ikibazo	-4429
▁ikomeye	-4430
▁imodoka	-4431
▁impunzi	-4432
▁isanzwe	-4433
▁kugaban	-4434
▁nyamara	-4435
▁rugendo	-4436
▁uburezi	-4437
▁ukugira	-4438
▁umubare	-4439
▁umupira	-4440
▁umutima	-4441
▁umuziki	-4442
▁uruhare	-4443
▁uwahoze	-4444
▁wenyine	-4445
▁yabonye	-4446
AMADORALI	-4447
SHUSHANYO	-4448
UBUCURUZI	-4449
UMUSARURO	-4450
UMUTEKANO	-4451
amadorali	-4452
hindurira	-4453
shushanyo	-4454
ubucuruzi	-4455
umusaruro	-4456
▁ABAHANZI	-4457
▁ABAKOBWA	-4458
▁ABAKUNZI	-4459
▁AMAGAMBO	-4460
▁ATANGIYE	-4461
▁BAKINNYI	-4462
▁BAKOMEYE	-4463
▁BAYOBOZI	-4464
▁BYAGENZE	-4465
▁GUSOHORA	-4466
▁IBIHUMBI	-4467
▁IBIKOMBE	-4468
▁IJONJORA	-4469
▁KILLAMAN	-4470
▁KUZAKINA	-4471
▁KWINJIRA	-4472
▁Killaman	-4473
▁MUTARAMA	-4474
▁MUYOBORO	-4475
▁Mutarama	-4476
▁RYONYINE	-4477
▁SASAKAWA	-4478
▁SECURITY	-4479
▁SOSIYETE	-4480
▁Sasakawa	-4481
▁UMUBYEYI	-4482
▁UMUKUNZI	-4483
▁URUKUNDO	-4484
▁USHINZWE	-4485
▁YAFASHWE	-4486
▁YAKINIYE	-4487
▁YEREKEJE	-4488
▁YEREKEZA	-4489
▁YITEGURA	-4490
▁abahanzi	-4491
▁amagambo	-4492
▁atangiye	-4493
▁bakinnyi	-4494
▁bakomeye	-4495
▁bayobozi	-4496
▁byagenze	-4497
▁gusohora	-4498
▁ibihumbi	-4499
▁ibikombe	-4500
▁ijonjora	-4501
▁kuzakina	-4502
▁kwinjira	-4503
▁mugabane	-4504
▁muyoboro	-4505
▁perezida	-4506
▁ryonyine	-4507
▁security	-4508
▁umukunzi	-4509
▁urukundo	-4510
▁ushinzwe	-4511
▁yafashwe	-4512
▁yerekeje	-4513
▁yerekeza	-4514
▁yitegura	-4515
BYIBAGIRWA	-4516
MWISHUSHAN	-4517
agateganyo	-4518
byibagirwa	-4519
mwishushan	-4520
▁AMASHUSHO	-4521
▁AUGUSTINE	-4522
▁AZASHYIRA	-4523
▁Augustine	-4524
▁BASHOBORA	-4525
▁BIBARUTSE	-4526
▁BUHANGANO	-4527
▁CYOGAJURU	-4528
▁GAFARANGA	-4529
▁GATANDATU	-4530
▁GUHINDURA	-4531
▁Gafaranga	-4532
▁Gatandatu	-4533
▁IBIGANIRO	-4534
▁IBIJYANYE	-4535
▁IGERAGEZA	-4536
▁KUYITANGA	-4537
▁KWISHYURA	-4538
▁NIYONZIMA	-4539
▁NYAGAHENE	-4540
▁NYAMPINGA	-4541
▁Niyonzima	-4542
▁Nyagahene	-4543
▁Nyampinga	-4544
▁RUSHINZWE	-4545
▁UMUYOBORO	-4546
▁WUNGIRIJE	-4547
▁YAGOMBAGA	-4548
▁YAMBEREYE	-4549
▁YANYUJIJE	-4550
▁YITEZWEHO	-4551
▁amashusho	-4552
▁azashyira	-4553
▁bashobora	-4554
▁buhangano	-4555
▁cyogajuru	-4556
▁guhindura	-4557
▁ibiganiro	-4558
▁ibijyanye	-4559
▁igerageza	-4560
▁kuyitanga	-4561
▁kwishyura	-4562
▁rushinzwe	-4563
▁umuyoboro	-4564
▁wungirije	-4565
▁yagombaga	-4566
▁yambereye	-4567
▁yanyujije	-4568
▁yitezweho	-4569
KURIKIRANWA	-4570
kurikiranwa	-4571
▁ABAKORESHA	-4572
▁BARIRIMBYE	-4573
▁BIREMEREYE	-4574
▁BYATANGIYE	-4575
▁ETINCELLES	-4576
▁Etincelles	-4577
▁GUHAGARIKA	-4578
▁HAKIZIMANA	-4579
▁Hakizimana	-4580
▁ISHORAMARI	-4581
▁KUYIKORERA	-4582
▁KWIYONGERA	-4583
▁NDABYIBUKA	-4584
▁YAGERAGEJE	-4585
▁YASEZEREYE	-4586
▁YASHYIZEHO	-4587
▁abakoresha	-4588
▁baririmbye	-4589
▁biremereye	-4590
▁guhagarika	-4591
▁kuyikorera	-4592
▁kwiyongera	-4593
▁yasezereye	-4594
HIMBAZAMUSYI	-4595
SHISHIKARIZA	-4596
UMUNYAMAKURU	-4597
himbazamusyi	-4598
shishikariza	-4599
umunyamakuru	-4600
▁AMASEZERANO	-4601
▁ASSOCIATION	-4602
▁ATANDUKANYE	-4603
▁Association	-4604
▁BISHUSHANYO	-4605
▁GASHYANTARE	-4606
▁Gashyantare	-4607
▁KWIFASHISHA	-4608
▁STEENHUISEN	-4609
▁Steenhuisen	-4610
▁YASEZERANYE	-4611
▁amasezerano	-4612
▁application	-4613
▁atandukanye	-4614
▁bishushanyo	-4615
▁igitekerezo	-4616
▁kwifashisha	-4617
▁yasezeranye	-4618
ABAMUKURIKIRA	-4619
abamukurikira	-4620
▁ABANYAMAKURU	-4621
▁BITEGANYIJWE	-4622
▁IKINYAMAKURU	-4623
▁ikinyamakuru	-4624
▁UBURENGANZIRA	-4625
▁uburenganzira	-4626
.96	-4627
040	-4628
109	-4629
400	-4630
7$.	-4631
9,6	-4632
9.1	-4633
:09	-4634
ERT	-4635
ITY	-4636
LOO	-4637
NDO	-4638
UEL	-4639
VID	-4640
lau	-4641
nau	-4642
uel	-4643
▁68	-4644
▁80	-4645
▁97	-4646
▁VS	-4647
▁Zi	-4648
▁po	-4649
0407	-4650
ANES	-4651
BERS	-4652
CODE	-4653
DDEN	-4654
DING	-4655
HICH	-4656
ICYO	-4657
IMYI	-4658
Inga	-4659
KIES	-4660
KONO	-4661
LOOT	-4662
MERS	-4663
NANI	-4664
NDWI	-4665
ORPO	-4666
PIMO	-4667
PIRI	-4668
PORO	-4669
SURA	-4670
TALO	-4671
VIER	-4672
WARD	-4673
WITH	-4674
ZANI	-4675
cess	-4676
ciwe	-4677
code	-4678
dden	-4679
ella	-4680
elmi	-4681
firi	-4682
ibyi	-4683
ibyo	-4684
icyo	-4685
illi	-4686
inna	-4687
inzu	-4688
irin	-4689
kies	-4690
llag	-4691
mers	-4692
mila	-4693
nara	-4694
pano	-4695
pimo	-4696
piri	-4697
rena	-4698
riel	-4699
/08	-4700
ende	-4701
gnat	-4702
stin	-4703
sura	-4704
talo	-4705
veal	-4706
zani	-4707
▁1.3	-4708
▁115	-4709
▁16,	-4710
▁170	-4711
▁199	-4712
▁25/	-4713
▁256	-4714
▁27,	-4715
▁3,5	-4716
▁3,8	-4717
▁4.5	-4718
▁4:5	-4719
▁5.2	-4720
▁60.	-4721
▁620	-4722
▁ANC	-4723
▁App	-4724
▁COO	-4725
▁EAC	-4726
▁EJO	-4727
▁GOT	-4728
▁How	-4729
▁IFC	-4730
▁LSK	-4731
▁Niz	-4732
▁PAU	-4733
▁Pau	-4734
▁RAY	-4735
▁REP	-4736
▁RIC	-4737
▁Rep	-4738
▁SEL	-4739
▁SUB	-4740
▁SUM	-4741
▁coo	-4742
▁par	-4743
▁wit	-4744
/2023	-4745
400$.	-4746
ABIMU	-4747
ALINE	-4748
Aline	-4749
BAZWA	-4750
BOOKI	-4751
CYAHA	-4752
DANYE	-4753
DWARA	-4754
FUNGU	-4755
GABYE	-4756
GAMBI	-4757
GENDE	-4758
GENGE	-4759
GEZWA	-4760
GRESS	-4761
HEBYE	-4762
HUNGU	-4763
IGIHE	-4764
IGISE	-4765
IMISO	-4766
ININI	-4767
ITORA	-4768
Imiso	-4769
JYIZA	-4770
KENDE	-4771
KIMBI	-4772
KOZWE	-4773
KWIRA	-4774
LENDO	-4775
MANCE	-4776
MARAM	-4777
MVAGA	-4778
NAERT	-4779
ONEHO	-4780
PORTS	-4781
RENGE	-4782
RESTE	-4783
RONGO	-4784
RUNDI	-4785
RURWE	-4786
SEBYA	-4787
SESEN	-4788
SHINI	-4789
STERS	-4790
TINDA	-4791
TONDE	-4792
TUNGO	-4793
VUGWA	-4794
WUMVA	-4795
YUMVI	-4796
abari	-4797
amera	-4798
bacyu	-4799
49	-4800
68	-4801
:49	-4802
AHA	-4803
HAM	-4804
LAN	-4805
PFU	-4806
abo	-4807
aha	-4808
ham	-4809
ner	-4810
saa	-4811
▁GB	-4812
▁SU	-4813
BIHA	-4814
BURI	-4815
DANA	-4816
DIKA	-4817
HAWE	-4818
RONA	-4819
WEMO	-4820
bika	-4821
date	-4822
hawe	-4823
hera	-4824
huye	-4825
kuze	-4826
tuye	-4827
▁200	-4828
▁ARE	-4829
▁Ame	-4830
▁IHA	-4831
▁IMU	-4832
▁WAY	-4833
NETTE	-4834
PFUYE	-4835
bazwa	-4836
bunga	-4837
byeme	-4838
cesso	-4839
cyaha	-4840
danye	-4841
dwara	-4842
fungu	-4843
gende	-4844
genga	-4845
gushy	-4846
hando	-4847
hebye	-4848
hinda	-4849
hungu	-4850
igihe	-4851
inini	-4852
itora	-4853
kende	-4854
kwira	-4855
laude	-4856
mable	-4857
maram	-4858
mbana	-4859
milar	-4860
mvise	-4861
nable	-4862
nyaka	-4863
oneho	-4864
renge	-4865
rizwa	-4866
rumpa	-4867
rurwe	-4868
rwano	-4869
sebya	-4870
shake	-4871
shima	-4872
shini	-4873
shoye	-4874
teres	-4875
tonde	-4876
tungo	-4877
wonge	-4878
wumva	-4879
zalen	-4880
▁1.31	-4881
▁1996	-4882
▁2000	-4883
▁2003	-4884
▁2009	-4885
▁2016	-4886
▁27,5	-4887
▁2800	-4888
▁29.1	-4889
▁3000	-4890
▁39,6	-4891
▁4:59	-4892
▁5000	-4893
▁5:09	-4894
▁8:49	-4895
▁9:08	-4896
▁AFUN	-4897
▁AIMA	-4898
▁AJYA	-4899
AS	-4900
.22	-4901
DIA	-4902
GNE	-4903
HON	-4904
ITU	-4905
Ibi	-4906
NAT	-4907
fai	-4908
rea	-4909
zon	-4910
▁46	-4911
BIKA	-4912
GANO	-4913
INTE	-4914
URWA	-4915
ZIBA	-4916
boko	-4917
ding	-4918
fait	-4919
guro	-4920
inzi	-4921
kije	-4922
reak	-4923
riwe	-4924
rizi	-4925
teye	-4926
teza	-4927
ward	-4928
yabo	-4929
yomu	-4930
▁460	-4931
▁Bwe	-4932
▁MCM	-4933
▁Uko	-4934
▁igu	-4935
▁uyi	-4936
ZIBAC	-4937
faitK	-4938
rongo	-4939
yiran	-4940
▁16,4	-4941
▁ANYA	-4942
▁Amel	-4943
▁BAKI	-4944
▁BAKO	-4945
▁BOTS	-4946
▁Biza	-4947
▁Bufa	-4948
▁CLAU	-4949
▁DUCE	-4950
▁ELON	-4951
▁ENYE	-4952
▁FDRL	-4953
▁FRED	-4954
▁GAKE	-4955
▁GATO	-4956
▁Gahi	-4957
▁Gicu	-4958
▁ICAN	-4959
▁IPHO	-4960
▁IVAN	-4961
▁Ivan	-4962
▁JAVA	-4963
▁JERE	-4964
▁Java	-4965
▁Jere	-4966
▁KAVU	-4967
▁KIRU	-4968
▁KUKI	-4969
▁KUZE	-4970
▁Kaga	-4971
▁Komi	-4972
▁MAIL	-4973
▁MUSK	-4974
▁MUST	-4975
▁Make	-4976
▁NABO	-4977
▁NTUN	-4978
▁NYIR	-4979
▁PAPA	-4980
▁POWE	-4981
▁REVE	-4982
▁Ruta	-4983
▁SABC	-4984
▁SADA	-4985
▁SENA	-4986
▁SIMI	-4987
▁Sina	-4988
▁THEM	-4989
▁TIME	-4990
▁TUTA	-4991
▁Time	-4992
▁UKWI	-4993
▁Ubwo	-4994
▁WAZA	-4995
▁WESE	-4996
▁WITH	-4997
▁WORL	-4998
▁Wamu	-4999
XT	-5000
sk	-5001
▁—	-5002
IRE	-5003
LAR	-5004
MWU	-5005
RWI	-5006
Uru	-5007
ayo	-5008
iza	-5009
▁23	-5010
▁WF	-5011
▁XT	-5012
BOKO	-5013
IBYI	-5014
IBYO	-5015
RIRE	-5016
TEYE	-5017
baha	-5018
mban	-5019
rire	-5020
shop	-5021
▁AKO	-5022
▁BRE	-5023
▁Rwi	-5024
▁UKI	-5025
▁WFC	-5026
▁ako	-5027
▁yap	-5028
RANSA	-5029
hemba	-5030
jyiza	-5031
▁1:37	-5032
▁BABO	-5033
▁BIGA	-5034
▁BREA	-5035
▁BURA	-5036
▁DORE	-5037
▁GEOR	-5038
▁Geor	-5039
▁INGO	-5040
▁IRYO	-5041
▁Musk	-5042
▁NASA	-5043
▁RICA	-5044
▁SPAM	-5045
▁Wari	-5046
▁YABO	-5047
▁YACU	-5048
▁YEGO	-5049
▁YIGA	-5050
▁YOUR	-5051
▁YVES	-5052
▁Yego	-5053
▁Yesu	-5054
▁Your	-5055
▁Yves	-5056
▁ZARI	-5057
▁ZAYO	-5058
▁afun	-5059
▁ajya	-5060
▁asan	-5061
▁babo	-5062
▁baha	-5063
▁baki	-5064
▁beza	-5065
▁buza	-5066
▁does	-5067
▁duce	-5068
▁kaga	-5069
▁keep	-5070
▁mail	-5071
▁maze	-5072
▁must	-5073
▁namu	-5074
▁nyir	-5075
▁papa	-5076
▁rero	-5077
▁rida	-5078
▁rugo	-5079
▁them	-5080
▁tuta	-5081
▁ubwa	-5082
▁ukwi	-5083
▁visi	-5084
▁wamu	-5085
▁with	-5086
▁yacu	-5087
▁yaku	-5088
▁yiga	-5089
▁yise	-5090
▁zari	-5091
▁zayo	-5092
040720	-5093
1/2023	-5094
ANESSA	-5095
BEREHO	-5096
BESHWA	-5097
BIKORA	-5098
BOHORA	-5099
..	-5100
29	-5101
CK	-5102
▁*	-5103
▁;	-5104
294	-5105
9,1	-5106
CAN	-5107
ous	-5108
zan	-5109
▁Ai	-5110
▁ur	-5111
AHAN	-5112
BAHA	-5113
CELI	-5114
DUKI	-5115
GIRU	-5116
LICK	-5117
TEWE	-5118
WAYO	-5119
buze	-5120
poro	-5121
zina	-5122
▁...	-5123
▁180	-5124
▁485	-5125
▁AHE	-5126
▁ANA	-5127
▁Fin	-5128
▁IGU	-5129
▁Igi	-5130
▁LTE	-5131
▁MBA	-5132
▁PAR	-5133
▁ahe	-5134
▁uki	-5135
GENGA	-5136
HANDE	-5137
kozwe	-5138
reste	-5139
▁29,1	-5140
▁7:22	-5141
▁CITY	-5142
▁Hama	-5143
▁KABA	-5144
▁RUGO	-5145
▁SHEN	-5146
▁baru	-5147
▁hano	-5148
▁kuki	-5149
▁spam	-5150
AHANDI	-5151
BARUKA	-5152
BYAZWE	-5153
BYIMBA	-5154
DUKIKI	-5155
FASHWA	-5156
FATABU	-5157
FATIKA	-5158
FATIYE	-5159
GANAGA	-5160
GENEWE	-5161
GUHARI	-5162
GURANE	-5163
HARIYE	-5164
HERERE	-5165
HITAMO	-5166
HIZAMU	-5167
IMFURA	-5168
INGANA	-5169
INGOMA	-5170
INJIYE	-5171
INYAMA	-5172
ISHAZA	-5173
ISRAEL	-5174
Imbere	-5175
Ingabo	-5176
Israel	-5177
Izindi	-5178
JYENDA	-5179
KINAGA	-5180
KIRIHO	-5181
KIRIZA	-5182
KORERE	-5183
MBANYA	-5184
METERO	-5185
MPATSE	-5186
NATION	-5187
RANYWA	-5188
RASIRA	-5189
RESTED	-5190
RIAQUE	-5191
RIMBWE	-5192
RIYEMO	-5193
RWANYI	-5194
RWENYA	-5195
SCRIPT	-5196
SEZERA	-5197
SEZEYE	-5198
SHANWA	-5199
-1	-5200
NG	-5201
ck	-5202
is	-5203
ni	-5204
▁‹	-5205
-19	-5206
AYO	-5207
ert	-5208
ndo	-5209
sun	-5210
▁88	-5211
▁If	-5212
▁KK	-5213
▁en	-5214
▁is	-5215
HIGI	-5216
LLAG	-5217
SUNG	-5218
TEZA	-5219
YOMU	-5220
anes	-5221
anyi	-5222
fuye	-5223
lick	-5224
mbwi	-5225
msun	-5226
sebo	-5227
tumi	-5228
▁MIN	-5229
▁SHO	-5230
▁UYI	-5231
▁aki	-5232
▁ana	-5233
▁nin	-5234
KUNDI	-5235
MSUNG	-5236
RIZWA	-5237
homba	-5238
kanya	-5239
mance	-5240
msung	-5241
ransa	-5242
rayon	-5243
shoti	-5244
▁60.6	-5245
▁ASAN	-5246
▁BARU	-5247
▁DOES	-5248
▁GUHO	-5249
▁PHAN	-5250
▁bako	-5251
▁enye	-5252
▁yadu	-5253
▁yagi	-5254
DAFITE	-5255
GIRANE	-5256
LLAGHE	-5257
SHIJWE	-5258
SHYAKA	-5259
SIGAYE	-5260
SPORTS	-5261
SUBIZA	-5262
SUZUGU	-5263
TEGEKA	-5264
UBUNTU	-5265
UMWAMI	-5266
URWARA	-5267
VUGURU	-5268
WANAYO	-5269
YAMAMA	-5270
YIJEHO	-5271
ZAMURA	-5272
anessa	-5273
anirwa	-5274
baruka	-5275
bereho	-5276
beshwa	-5277
bikora	-5278
byazwe	-5279
dafite	-5280
elmiya	-5281
erurwe	-5282
faitKu	-5283
fashwa	-5284
fatabu	-5285
fatiye	-5286
gabire	-5287
gariye	-5288
genewe	-5289
gorewe	-5290
guhari	-5291
gurane	-5292
hariye	-5293
hizamu	-5294
injiye	-5295
ishaza	-5296
kemura	-5297
kikije	-5298
kinaga	-5299
JY	-5300
LY	-5301
NT	-5302
▁←	-5303
ILI	-5304
MIN	-5305
PIN	-5306
VIN	-5307
ase	-5308
mbu	-5309
min	-5310
▁IT	-5311
▁Ib	-5312
SHOP	-5313
neze	-5314
siyo	-5315
tiki	-5316
▁AKI	-5317
▁Can	-5318
▁Cor	-5319
▁atu	-5320
▁iwa	-5321
▁jye	-5322
▁mbi	-5323
BUNGA	-5324
CESSO	-5325
JYANA	-5326
RIMBA	-5327
SHOYE	-5328
lease	-5329
tanze	-5330
▁25/1	-5331
▁BEZA	-5332
▁JOSH	-5333
▁Sena	-5334
▁YAHU	-5335
CESSOR	-5336
GOREWE	-5337
RURIRA	-5338
inyama	-5339
jyenda	-5340
kiriho	-5341
korere	-5342
litiki	-5343
llaghe	-5344
makaza	-5345
manaho	-5346
mbanya	-5347
metero	-5348
mibare	-5349
nezero	-5350
ranywa	-5351
razuba	-5352
remewe	-5353
riaque	-5354
rwanyi	-5355
rwenya	-5356
rwingo	-5357
scribe	-5358
script	-5359
sezera	-5360
sezeye	-5361
shanwa	-5362
shijwe	-5363
shyaka	-5364
subiza	-5365
tegeka	-5366
tumire	-5367
ubuntu	-5368
vuguru	-5369
vukana	-5370
vukire	-5371
vuyemo	-5372
wanayo	-5373
yamama	-5374
yamure	-5375
yijeho	-5376
yoboye	-5377
zamura	-5378
▁13/08	-5379
▁3,500	-5380
▁307$.	-5381
▁60.96	-5382
▁ABAZA	-5383
▁AFANA	-5384
▁AGAPE	-5385
▁AGEZE	-5386
▁AKAMU	-5387
▁AKORA	-5388
▁ALBUM	-5389
▁ALLEN	-5390
▁ANDRE	-5391
▁ARENA	-5392
▁AZAMU	-5393
▁Agape	-5394
▁Album	-5395
▁Allen	-5396
▁Andre	-5397
▁Annet	-5398
▁Arena	-5399
/2	-5400
ABO	-5401
LIN	-5402
TKU	-5403
YAH	-5404
tus	-5405
uri	-5406
▁66	-5407
▁98	-5408
▁AM	-5409
▁No	-5410
▁UB	-5411
▁am	-5412
▁it	-5413
BUZE	-5414
CIKA	-5415
ITKU	-5416
VUKA	-5417
higi	-5418
mere	-5419
▁1/2	-5420
▁ATU	-5421
▁HOW	-5422
▁Iyo	-5423
▁JYE	-5424
▁NIN	-5425
▁RYE	-5426
▁kan	-5427
▁twi	-5428
HANWA	-5429
MIYAH	-5430
Press	-5431
handi	-5432
sters	-5433
terna	-5434
▁BEEN	-5435
▁Bite	-5436
▁GUHU	-5437
▁IMWE	-5438
▁MAMA	-5439
▁Powe	-5440
▁RADI	-5441
▁RURA	-5442
▁YANA	-5443
▁kane	-5444
ABANYA	-5445
FAITKU	-5446
WUGARI	-5447
ahandi	-5448
ellars	-5449
ganaga	-5450
imfura	-5451
korewe	-5452
mutima	-5453
sigaye	-5454
tional	-5455
▁43.22	-5456
▁AWARD	-5457
▁Award	-5458
▁BEING	-5459
▁BENIN	-5460
▁BIGEN	-5461
▁BREAK	-5462
▁BUKWE	-5463
▁BWANA	-5464
▁BWITE	-5465
▁BWIZA	-5466
▁BYABO	-5467
▁BYAHA	-5468
▁BYAJE	-5469
▁BYARI	-5470
▁BYIZA	-5471
▁Benin	-5472
▁Bigen	-5473
▁Break	-5474
▁CLICK	-5475
▁CONFE	-5476
▁CORPO	-5477
▁COVID	-5478
▁CYIZA	-5479
▁Cable	-5480
▁Click	-5481
▁Confe	-5482
▁FERWA	-5483
▁GAKWE	-5484
▁Gakwe	-5485
▁IBIRO	-5486
▁ICANN	-5487
▁IJORO	-5488
▁IKAZE	-5489
▁IKIGO	-5490
▁IMARI	-5491
▁IMPAN	-5492
▁INSTA	-5493
▁IRADU	-5494
▁IRIHO	-5495
▁ITANU	-5496
▁ITARA	-5497
▁ITATU	-5498
▁Ikigo	-5499
ASE	-5500
ORT	-5501
Pho	-5502
dia	-5503
got	-5504
mit	-5505
mwu	-5506
oot	-5507
vin	-5508
FACE	-5509
HIZI	-5510
HOYE	-5511
NEZE	-5512
cika	-5513
dana	-5514
hich	-5515
hoye	-5516
rori	-5517
tewe	-5518
vier	-5519
yana	-5520
▁3,6	-5521
▁Ngo	-5522
▁Sum	-5523
▁Yan	-5524
▁can	-5525
▁got	-5526
▁gut	-5527
▁imu	-5528
▁way	-5529
GANZO	-5530
LEASE	-5531
Phone	-5532
TANZE	-5533
jyana	-5534
kimbi	-5535
ranyo	-5536
▁1600	-5537
▁BIHA	-5538
▁BIRU	-5539
▁BIYI	-5540
▁City	-5541
▁HAMA	-5542
▁NAMU	-5543
▁Worl	-5544
▁nabi	-5545
▁nabo	-5546
GABIRE	-5547
KEMURA	-5548
LICIOU	-5549
NEZERO	-5550
VUYEMO	-5551
byimba	-5552
cessor	-5553
fatika	-5554
gezeho	-5555
▁CABLE	-5556
▁INOTA	-5557
▁Iradu	-5558
▁KENYA	-5559
▁KINDI	-5560
▁KUNDI	-5561
▁KUNYE	-5562
▁Kenya	-5563
▁LIBYA	-5564
▁Libya	-5565
▁MFASH	-5566
▁MIJYI	-5567
▁Mbere	-5568
▁Mfash	-5569
▁Minna	-5570
▁NGOMA	-5571
▁NTAHO	-5572
▁NTAZI	-5573
▁NTEGO	-5574
▁NUMVA	-5575
▁NZIRA	-5576
▁Nizra	-5577
▁Nshin	-5578
▁Nyina	-5579
▁RADIO	-5580
▁RWABO	-5581
▁RWIZA	-5582
▁Tanga	-5583
▁UGERE	-5584
▁UGEZE	-5585
▁UMAZE	-5586
▁URIHO	-5587
▁WELLA	-5588
▁WHICH	-5589
▁WORDP	-5590
▁WORLD	-5591
▁World	-5592
▁YANDI	-5593
▁YASIN	-5594
▁YUMVA	-5595
▁ZARWO	-5596
▁afana	-5597
▁agera	-5598
▁akamu	-5599
rc	-5600
LLE	-5601
TUS	-5602
too	-5603
▁75	-5604
▁Su	-5605
▁TO	-5606
▁Te	-5607
▁fi	-5608
▁to	-5609
INZU	-5610
MEKA	-5611
MEZE	-5612
MIRE	-5613
RIEL	-5614
TIKI	-5615
YUHO	-5616
tari	-5617
towe	-5618
vuka	-5619
▁509	-5620
▁DAF	-5621
▁DBE	-5622
▁FIN	-5623
▁ISA	-5624
▁NIZ	-5625
▁She	-5626
▁TWI	-5627
▁bit	-5628
RANYO	-5629
SHAJE	-5630
genge	-5631
handa	-5632
sesen	-5633
▁BISA	-5634
▁Elon	-5635
▁Inno	-5636
▁MATE	-5637
▁NIYI	-5638
▁Ntun	-5639
▁VISI	-5640
▁biga	-5641
▁bigo	-5642
▁bisa	-5643
▁biyi	-5644
▁make	-5645
▁wavu	-5646
GIYEHE	-5647
HUMEKA	-5648
MAKAZA	-5649
MANAHO	-5650
MUTIMA	-5651
SHIMAN	-5652
TUMIRE	-5653
YOBOYE	-5654
bimuwe	-5655
hitamo	-5656
imbere	-5657
raneza	-5658
▁AMASO	-5659
▁BANTU	-5660
▁IWAYO	-5661
▁NIZRA	-5662
▁UKUBA	-5663
▁akora	-5664
▁aramu	-5665
▁bantu	-5666
▁being	-5667
▁bukwe	-5668
▁bumva	-5669
▁bwite	-5670
▁byabo	-5671
▁byaha	-5672
▁byaje	-5673
▁byiza	-5674
▁cyaba	-5675
▁cyari	-5676
▁cyiza	-5677
▁hamwe	-5678
▁ijoro	-5679
▁ikaze	-5680
▁imari	-5681
▁inota	-5682
▁iriho	-5683
▁itanu	-5684
▁itara	-5685
▁itatu	-5686
▁iwayo	-5687
▁kumwe	-5688
▁kundi	-5689
▁kwiga	-5690
▁mijyi	-5691
▁mujyi	-5692
▁ngoma	-5693
▁ntazi	-5694
▁ntego	-5695
▁numva	-5696
▁nzira	-5697
▁rumwe	-5698
▁rwabo	-5699
:20	-5700
DEL	-5701
LLI	-5702
PFA	-5703
dwi	-5704
▁Lo	-5705
HUSE	-5706
SIYO	-5707
TESI	-5708
YANI	-5709
gano	-5710
hume	-5711
hura	-5712
huse	-5713
lika	-5714
ongo	-5715
tesi	-5716
urwa	-5717
yani	-5718
▁506	-5719
▁NDU	-5720
▁mba	-5721
▁rye	-5722
▁ryo	-5723
ABARI	-5724
GISHI	-5725
KANYA	-5726
SHAKE	-5727
SHIMA	-5728
gabye	-5729
gishi	-5730
gress	-5731
hanwa	-5732
shaje	-5733
shimo	-5734
▁2:20	-5735
▁BIGO	-5736
▁BIHU	-5737
▁BUZA	-5738
▁HARA	-5739
▁Ishi	-5740
▁Kuba	-5741
▁Muga	-5742
▁NABI	-5743
▁Phan	-5744
▁WAVU	-5745
▁YADU	-5746
▁bati	-5747
▁bice	-5748
▁bots	-5749
▁yabo	-5750
▁yana	-5751
humeka	-5752
urwara	-5753
▁ARAMU	-5754
▁CYABA	-5755
▁TANGA	-5756
▁azamu	-5757
▁rwiza	-5758
▁ugere	-5759
▁ugeze	-5760
▁ukuba	-5761
▁umaze	-5762
▁umuce	-5763
▁uriho	-5764
▁wandi	-5765
▁which	-5766
▁yandi	-5767
▁yasin	-5768
▁yumva	-5769
▁zarwo	-5770
▁zimwe	-5771
ABIMUWE	-5772
AFURIKA	-5773
AHAZAZA	-5774
AMANOTA	-5775
Akarere	-5776
Amaguru	-5777
BYICUZA	-5778
DAKWIYE	-5779
DUFASHA	-5780
FARANSA	-5781
FITANYE	-5782
GIRANYE	-5783
HEREJWE	-5784
IBIBAZO	-5785
IMIRIMO	-5786
IMISOZI	-5787
INZIBAC	-5788
Imisozi	-5789
KEKWAHO	-5790
KISHIJE	-5791
KORESHO	-5792
KUNDAGA	-5793
LICIOUS	-5794
LLAGHER	-5795
MUREMYE	-5796
MVIKANA	-5797
NANIRWA	-5798
NYEMARI	-5799
AR	-5800
MBU	-5801
TOO	-5802
dio	-5803
ler	-5804
▁52	-5805
▁73	-5806
LIKA	-5807
TOWE	-5808
TUYE	-5809
VAMO	-5810
▁120	-5811
▁NTO	-5812
▁Ray	-5813
▁ZIN	-5814
▁bye	-5815
▁nto	-5816
▁uwo	-5817
HEMBA	-5818
HINDA	-5819
NGIYE	-5820
RWANO	-5821
hamwe	-5822
kundi	-5823
▁BICE	-5824
▁BIKE	-5825
▁Cyan	-5826
▁FRAN	-5827
▁Fran	-5828
▁INNO	-5829
▁Josh	-5830
▁KOMI	-5831
▁RUBA	-5832
▁YAKE	-5833
▁YESU	-5834
▁been	-5835
▁bihu	-5836
▁gake	-5837
▁imwe	-5838
▁wese	-5839
▁yake	-5840
BUKORA	-5841
REMEWE	-5842
bukora	-5843
giyehe	-5844
kagera	-5845
▁AGERA	-5846
▁Corpo	-5847
▁KINYA	-5848
▁KUMWE	-5849
▁NGABO	-5850
▁amaso	-5851
▁bwiza	-5852
▁ntaho	-5853
▁yakun	-5854
Afurika	-5855
GEZWEHO	-5856
RANGIJE	-5857
RANYIJE	-5858
RIMBANA	-5859
SHAKAHO	-5860
SHYINGO	-5861
Umupira	-5862
YURANYO	-5863
ZIRANYE	-5864
ZONGERA	-5865
abimuwe	-5866
ahazaza	-5867
amanota	-5868
bacyuho	-5869
barutse	-5870
byicuza	-5871
dufasha	-5872
elmiyah	-5873
fitanye	-5874
gezweho	-5875
girumpa	-5876
gurisha	-5877
herejwe	-5878
ibibazo	-5879
imirimo	-5880
kekwaho	-5881
kishije	-5882
koresho	-5883
licious	-5884
llagher	-5885
nanirwa	-5886
nyakazi	-5887
nyemari	-5888
nyereza	-5889
pantalo	-5890
rangije	-5891
ranyije	-5892
shakaho	-5893
uburezi	-5894
yumvise	-5895
yuranyo	-5896
zalendo	-5897
ziranye	-5898
zongera	-5899
▁32	-5900
MBWI	-5901
STIN	-5902
HAMWE	-5903
SHIMO	-5904
SHOTI	-5905
ganzo	-5906
gezwa	-5907
rimba	-5908
▁1.16	-5909
▁2013	-5910
▁Fred	-5911
▁GERA	-5912
▁MAZE	-5913
▁Mate	-5914
▁UBWA	-5915
▁YISE	-5916
▁bike	-5917
▁biru	-5918
▁HAMWE	-5919
▁NGIRU	-5920
▁RUMWE	-5921
itegeko	-5922
▁12.000	-5923
▁20.000	-5924
▁30.000	-5925
▁3400$.	-5926
▁ACCESS	-5927
▁AHUNZE	-5928
▁AKUNDA	-5929
▁AKWIYE	-5930
▁ANDIKA	-5931
▁ARENGA	-5932
▁ATANGI	-5933
▁BABAHO	-5934
▁BABIRI	-5935
▁BABONA	-5936
▁BAGERA	-5937
▁BAGORE	-5938
▁BAKAKI	-5939
▁BATAWE	-5940
▁BAZABA	-5941
▁BIGERA	-5942
▁BIHAYE	-5943
▁BISHOP	-5944
▁BITABA	-5945
▁BITARA	-5946
▁BITARO	-5947
▁BITEYE	-5948
▁BITUGU	-5949
▁BIVUZE	-5950
▁BIZABA	-5951
▁BUBIKO	-5952
▁Benshi	-5953
▁Bishop	-5954
▁Bivuze	-5955
▁CAMERA	-5956
▁CLAUDE	-5957
▁Claude	-5958
▁DECODE	-5959
▁DEPITE	-5960
▁DUFITE	-5961
▁Depite	-5962
▁GAHIMA	-5963
▁GEORGE	-5964
▁GIFITE	-5965
▁GISHYA	-5966
▁GITABO	-5967
▁GUTEKA	-5968
▁GUTERA	-5969
▁GUTEZA	-5970
▁Gahima	-5971
▁Gatanu	-5972
▁George	-5973
▁HIDDEN	-5974
▁IBASHE	-5975
▁IBYAGO	-5976
▁ICYAHA	-5977
▁IGOMBA	-5978
▁IMBUGA	-5979
▁IMPANO	-5980
▁INTORE	-5981
▁INZEGO	-5982
▁IPHONE	-5983
▁ISHOTI	-5984
▁ISHURI	-5985
▁Ikindi	-5986
▁Intore	-5987
▁KAGERA	-5988
▁KIBAZO	-5989
▁KININI	-5990
▁KIRERE	-5991
▁KOMERA	-5992
▁KUVUGA	-5993
▁Kagame	-5994
▁MATAYO	-5995
▁MINARA	-5996
▁MPAMVU	-5997
▁MUGOZI	-5998
▁MUHIZI	-5999
▁MUPIRA	-6000
▁MUSORE	-6001
▁Matayo	-6002
▁NAKOZE	-6003
▁NGINGO	-6004
▁NIYOMU	-6005
▁NJYEWE	-6006
▁NONEHO	-6007
▁NSHURO	-6008
▁NTACYA	-6009
▁NTANGI	-6010
▁Niyomu	-6011
▁ORESTE	-6012
▁Oreste	-6013
▁PERFOR	-6014
▁PLEASE	-6015
▁Perfor	-6016
▁Please	-6017
▁REGNAT	-6018
▁REVEAL	-6019
▁RISHYA	-6020
▁RUKIKO	-6021
▁RUTARI	-6022
▁Regnat	-6023
▁Robert	-6024
▁SADATE	-6025
▁SHADDY	-6026
▁SHENGE	-6027
▁SUMMIT	-6028
▁Sadate	-6029
▁Shaddy	-6030
▁Shenge	-6031
▁Summit	-6032
▁TUBIRI	-6033
▁TUMAZE	-6034
▁TUREBE	-6035
▁UGANDA	-6036
▁UNABLE	-6037
▁URUMVA	-6038
▁Uganda	-6039
▁Ugushy	-6040
▁Urumva	-6041
▁VALENS	-6042
▁Valens	-6043
▁WASOMA	-6044
▁WUJUJE	-6045
▁Wasoma	-6046
▁YABAHO	-6047
▁YARIMO	-6048
▁YAZAMU	-6049
▁YICUZA	-6050
▁YUZUYE	-6051
▁ZIGERA	-6052
▁ZIZABA	-6053
▁access	-6054
▁akunda	-6055
▁akwiye	-6056
▁arenga	-6057
▁atangi	-6058
▁babaho	-6059
▁babiri	-6060
▁bagera	-6061
▁bagore	-6062
▁bakaki	-6063
▁batawe	-6064
▁bazaba	-6065
▁bigera	-6066
▁bitaba	-6067
▁bitara	-6068
▁bitaro	-6069
▁biteye	-6070
▁bitugu	-6071
▁bizaba	-6072
▁bubiko	-6073
▁camera	-6074
▁decode	-6075
▁dufite	-6076
▁gatatu	-6077
▁gifite	-6078
▁gishya	-6079
▁gitabo	-6080
▁guteka	-6081
▁gutera	-6082
▁guteza	-6083
▁hidden	-6084
▁iPhone	-6085
▁ibashe	-6086
▁ibyago	-6087
▁icyaha	-6088
▁igomba	-6089
▁ikindi	-6090
▁imbuga	-6091
▁impano	-6092
▁inzego	-6093
▁ishuri	-6094
▁kibazo	-6095
▁kinini	-6096
▁kirere	-6097
▁komera	-6098
▁komite	-6099
▁kuvuga	-6100
▁minara	-6101
▁mpamvu	-6102
▁mugozi	-6103
▁mupira	-6104
▁musore	-6105
▁nakoze	-6106
▁ngingo	-6107
▁noneho	-6108
▁nshuro	-6109
▁ntacya	-6110
▁ntangi	-6111
▁reveal	-6112
▁rishya	-6113
▁rutari	-6114
▁tubiri	-6115
▁tumaze	-6116
▁turebe	-6117
▁ubumwe	-6118
▁unable	-6119
▁wujuje	-6120
▁yabaho	-6121
▁yarimo	-6122
▁yazamu	-6123
▁yicuza	-6124
▁yuzuye	-6125
▁zigera	-6126
▁zizaba	-6127
68040720	-6128
BESHWAHO	-6129
DERATION	-6130
DUKIKIJE	-6131
Facebook	-6132
GARARANA	-6133
GARUKAGA	-6134
GIRANEZA	-6135
GIRAYEZU	-6136
GUHARIRW	-6137
ICYICIRO	-6138
INJIRIZA	-6139
INYUJIJE	-6140
ITANGAZA	-6141
Icyiciro	-6142
Igikombe	-6143
MENYETSO	-6144
NATIONAL	-6145
PIRIYANI	-6146
SCRIBERS	-6147
SHAKISHI	-6148
SUZUGURO	-6149
TANGAZWA	-6150
UMUKOBWA	-6151
UMUKUNZI	-6152
URUKUNDO	-6153
Ubuhinzi	-6154
WIHARIYE	-6155
WUGARIZI	-6156
YARWANDA	-6157
YEREKEYE	-6158
ZEGUKANA	-6159
beshwaho	-6160
deration	-6161
dukikije	-6162
garukaga	-6163
giraneza	-6164
girayezu	-6165
inyujije	-6166
menyetso	-6167
piriyani	-6168
rwingoma	-6169
scribers	-6170
shakishi	-6171
shingano	-6172
suzuguro	-6173
tangazwa	-6174
terested	-6175
tumanaho	-6176
umukobwa	-6177
umukunzi	-6178
wihariye	-6179
wugarizi	-6180
yerekeye	-6181
zegukana	-6182
▁ABAFANA	-6183
▁ABAFITE	-6184
▁ABAGABO	-6185
▁ABAKIRI	-6186
▁ABAKORA	-6187
▁ABAKOZI	-6188
▁AFUNGWE	-6189
▁AGAKIZA	-6190
▁AGARUKA	-6191
▁AIMABLE	-6192
▁AKAVUGA	-6193
▁AMABUYE	-6194
▁AMELOOT	-6195
▁AMUSABA	-6196
▁ANNETTE	-6197
▁ASEZEYE	-6198
▁ASHYIZE	-6199
▁ATANGWA	-6200
▁AZIBUKI	-6201
▁Aimable	-6202
▁Ameloot	-6203
▁Annette	-6204
▁BAFASHE	-6205
▁BAHABWA	-6206
▁BARENGA	-6207
▁BATANGA	-6208
▁BATANGI	-6209
▁BIGENDA	-6210
▁BIHEMBO	-6211
▁BINYUZE	-6212
▁BIRENZE	-6213
▁BUMVAGA	-6214
▁BURUNDI	-6215
▁COOKIES	-6216
▁FERWAFA	-6217
▁GABRIEL	-6218
▁GATANYA	-6219
▁GUHOMBA	-6220
▁GUSEBYA	-6221
▁Gabriel	-6222
▁IBICIRO	-6223
▁IBITERO	-6224
▁IFATABU	-6225
▁IGAHITA	-6226
▁IHURIRO	-6227
▁IJYANYE	-6228
▁IKORERA	-6229
▁IMIRIMO	-6230
▁INGENZI	-6231
▁INSHUTI	-6232
▁INTWARI	-6233
▁INTWARO	-6234
▁ISHIMWE	-6235
▁ISHYAKA	-6236
▁ISHYIRA	-6237
▁Ikibazo	-6238
▁Imibare	-6239
▁Impamvu	-6240
▁Impunzi	-6241
▁Interna	-6242
▁Ishimwe	-6243
▁Ishyira	-6244
▁Iyamure	-6245
▁JEREMIE	-6246
▁JOHANNA	-6247
▁JOHNSON	-6248
▁Jeremie	-6249
▁Johanna	-6250
▁Johnson	-6251
▁KAMANZI	-6252
▁KAMARAM	-6253
▁KANYUKA	-6254
▁KUBYAZA	-6255
▁KURENGA	-6256
▁KURINDA	-6257
▁KUVUGWA	-6258
▁KWITABA	-6259
▁KWIZERA	-6260
▁Kamanzi	-6261
▁Kanyuka	-6262
▁Kwakira	-6263
▁MUGAMBI	-6264
▁MUGISHA	-6265
▁Mugambi	-6266
▁Mugisha	-6267
▁NABONYE	-6268
▁NGOMBWA	-6269
▁NSHINGA	-6270
▁Nshinga	-6271
▁OHEREZA	-6272
▁PATRICK	-6273
▁Patrick	-6274
▁RUHANDO	-6275
▁RUTANGA	-6276
▁Rusange	-6277
▁SAMSUNG	-6278
▁SHOKORO	-6279
▁SIMILAR	-6280
▁SISTERS	-6281
▁Samsung	-6282
▁Sisters	-6283
▁UGAHITA	-6284
▁UKIFUZA	-6285
▁UKUBERA	-6286
▁UKUVUGA	-6287
▁UMUCELI	-6288
▁UMUKONO	-6289
▁UMUKOZI	-6290
▁UMUNARA	-6291
▁UMUTOZA	-6292
▁USANZWE	-6293
▁UWIMANA	-6294
▁Umugabo	-6295
▁Umusore	-6296
▁VANESSA	-6297
▁Vanessa	-6298
▁WELLARS	-6299
▁WERURWE	-6300
▁Wellars	-6301
▁Werurwe	-6302
▁YABANYE	-6303
▁YABWIYE	-6304
▁YABYAYE	-6305
▁YAKUNZE	-6306
▁YAPFUYE	-6307
▁YATANGA	-6308
▁YITABYE	-6309
▁YITWAJE	-6310
▁YONGERA	-6311
▁YONYINE	-6312
▁ZATUMYE	-6313
▁abafana	-6314
▁abafite	-6315
▁abakiri	-6316
▁abakora	-6317
▁abakozi	-6318
▁abarimo	-6319
▁afungwe	-6320
▁agakiza	-6321
▁ahagara	-6322
▁akavuga	-6323
▁amabuye	-6324
▁amahoro	-6325
▁amazina	-6326
▁amusaba	-6327
▁asezeye	-6328
▁atangwa	-6329
▁azibuki	-6330
▁bafashe	-6331
▁bahabwa	-6332
▁barenga	-6333
▁batanga	-6334
▁batangi	-6335
▁bigenda	-6336
▁bihembo	-6337
▁binyuze	-6338
▁birenze	-6339
▁bumvaga	-6340
▁cookies	-6341
▁gatanya	-6342
▁guhomba	-6343
▁ibiciro	-6344
▁ibitero	-6345
▁ifatabu	-6346
▁igahita	-6347
▁ijyanye	-6348
▁ikorera	-6349
▁imirimo	-6350
▁ingenzi	-6351
▁inshuti	-6352
▁intwari	-6353
▁intwaro	-6354
▁ishyaka	-6355
▁itegeko	-6356
▁kamaram	-6357
▁kubyaza	-6358
▁kurenga	-6359
▁kurinda	-6360
▁kuvugwa	-6361
▁kwitaba	-6362
▁kwizera	-6363
▁nabonye	-6364
▁ruhando	-6365
▁rutanga	-6366
▁similar	-6367
▁ugahita	-6368
▁ukifuza	-6369
▁ukubera	-6370
▁ukuvuga	-6371
▁umuceli	-6372
▁umukono	-6373
▁umusore	-6374
▁umutoza	-6375
▁usanzwe	-6376
▁yabanye	-6377
▁yabwiye	-6378
▁yabyaye	-6379
▁yakunze	-6380
▁yapfuye	-6381
▁yatanga	-6382
▁yitabye	-6383
▁yitwaje	-6384
▁yongera	-6385
▁yonyine	-6386
▁zatumye	-6387
ABASHATSE	-6388
ABATURAGE	-6389
ABAYOBOZI	-6390
FACEBOOKI	-6391
GISHIRIZE	-6392
HINDURIRA	-6393
IKORESHWA	-6394
ITUMANAHO	-6395
KIMBIRANE	-6396
Nyampinga	-6397
SESENGURA	-6398
TANGIZAGA	-6399
Umutekano	-6400
abashatse	-6401
abaturage	-6402
abayobozi	-6403
gishirize	-6404
ikoreshwa	-6405
kimbirane	-6406
ririmbana	-6407
sesengura	-6408
tangizaga	-6409
▁ABAHINZI	-6410
▁ABARENGA	-6411
▁ACCESSED	-6412
▁AGAHINDA	-6413
▁AHERUTSE	-6414
▁ARABAZWA	-6415
▁ATEGANYA	-6416
▁BAHITAMO	-6417
▁BAVUKANA	-6418
▁BAYOBORA	-6419
▁BISHYURA	-6420
▁BUSANZWE	-6421
▁BYARANZE	-6422
▁CHRISTUS	-6423
▁CONGRESS	-6424
▁CYRIAQUE	-6425
▁CYUMWERU	-6426
▁Christus	-6427
▁Congress	-6428
▁Cyriaque	-6429
▁GICURASI	-6430
▁GUKORERA	-6431
▁GUSOHOKA	-6432
▁GUTSINDA	-6433
▁Gicurasi	-6434
▁HABIMANA	-6435
▁IBIHEMBO	-6436
▁ICYEMEZO	-6437
▁ICYICIRO	-6438
▁IGIHEMBO	-6439
▁IHERUTSE	-6440
▁IMIRWANO	-6441
▁IMYITOZO	-6442
▁INGABIRE	-6443
▁ISHOBORA	-6444
▁ISHYAMBA	-6445
▁ISHYIRWA	-6446
▁ITSINDWA	-6447
▁Ingabire	-6448
▁Internet	-6449
▁KAVUKIRE	-6450
▁KWANDIKA	-6451
▁KWISHIMA	-6452
▁LAWRENCE	-6453
▁Lawrence	-6454
▁MASHUSHO	-6455
▁MINNAERT	-6456
▁MUKINNYI	-6457
▁Minnaert	-6458
▁Mugabane	-6459
▁NABAGABO	-6460
▁NSHINGWA	-6461
▁NYAKANGA	-6462
▁Ngirumpa	-6463
▁Nshingwa	-6464
▁Nyakanga	-6465
▁RYAGABYE	-6466
▁SELMIYAH	-6467
▁SPAMMERS	-6468
▁Selmiyah	-6469
▁Sosiyete	-6470
▁TWABONYE	-6471
▁UBUBASHA	-6472
▁UBUSHAKE	-6473
▁UMUGISHA	-6474
▁UMUKOBWA	-6475
▁UMUKUNDA	-6476
▁URUHANDE	-6477
▁UTANGIRA	-6478
▁Ushobora	-6479
▁WAKORAGA	-6480
▁WANDITSE	-6481
▁YABIVUZE	-6482
▁YAKUNZWE	-6483
▁YASANZWE	-6484
▁YASHATSE	-6485
▁YASHIMAN	-6486
▁YASOHOYE	-6487
▁YAVUYEMO	-6488
▁YEGUKANA	-6489
▁YIHARIYE	-6490
▁Yashiman	-6491
▁ZIZINGWA	-6492
▁abahinzi	-6493
▁abakobwa	-6494
▁abakunzi	-6495
▁abarenga	-6496
▁accessed	-6497
▁agahinda	-6498
▁aherutse	-6499
▁arabazwa	-6500
▁ateganya	-6501
▁bahitamo	-6502
▁bavukana	-6503
▁bayobora	-6504
▁bishyura	-6505
▁busanzwe	-6506
▁byaranze	-6507
▁gukorera	-6508
▁gusohoka	-6509
▁gutsinda	-6510
▁ibihembo	-6511
▁icyemezo	-6512
▁icyiciro	-6513
▁igihembo	-6514
▁iherutse	-6515
▁imirwano	-6516
▁imyitozo	-6517
▁ishobora	-6518
▁ishyamba	-6519
▁ishyirwa	-6520
▁itangazo	-6521
▁itsindwa	-6522
▁kavukire	-6523
▁kwandika	-6524
▁kwishima	-6525
▁mashusho	-6526
▁mukinnyi	-6527
▁nabagabo	-6528
▁ryagabye	-6529
▁spammers	-6530
▁ububasha	-6531
▁ubushake	-6532
▁umubyeyi	-6533
▁umukobwa	-6534
▁umukunda	-6535
▁uruhande	-6536
▁utangira	-6537
▁wakoraga	-6538
▁wanditse	-6539
▁yabivuze	-6540
▁yakiniye	-6541
▁yakunzwe	-6542
▁yasanzwe	-6543
▁yashatse	-6544
▁yasohoye	-6545
▁yavuyemo	-6546
▁yegukana	-6547
▁yihariye	-6548
▁zizingwa	-6549
ABAKORESHA	-6550
HAGARARIYE	-6551
IMISHAHARA	-6552
RASIRAZUBA	-6553
RENGAJYIZA	-6554
SHYIGIKIRA	-6555
SHYIGIKIYE	-6556
SHYIKIRIZA	-6557
TEKEREZAGA	-6558
TSINDIRANO	-6559
YAMAMARIZA	-6560
abakoresha	-6561
hagarariye	-6562
imishahara	-6563
inyarwanda	-6564
rengajyiza	-6565
shyigikira	-6566
shyigikiye	-6567
shyikiriza	-6568
teganyijwe	-6569
tekerezaga	-6570
tsindirano	-6571
yamamariza	-6572
▁ABARWANYI	-6573
▁AMAGEREZA	-6574
▁ATAZIGERA	-6575
▁BABASEBYA	-6576
▁BUFARANSA	-6577
▁BWOROSHYE	-6578
▁BYOROSHYE	-6579
▁Bufaransa	-6580
▁GAKWERERE	-6581
▁GALLAGHER	-6582
▁GISHINZWE	-6583
▁GUTANGIRA	-6584
▁Gakwerere	-6585
▁Gallagher	-6586
▁IBIRARANE	-6587
▁IMIBEREHO	-6588
▁INYANDIKO	-6589
▁IYITSINZE	-6590
▁KIBARIRWA	-6591
▁KONGERERA	-6592
▁KUGENZURA	-6593
▁KUNANIRWA	-6594
▁KUNYEREZA	-6595
▁KURANGIRA	-6596
▁KWAMAMAZA	-6597
▁KWEGUKANA	-6598
▁KWEREKEZA	-6599
▁KWIBARUKA	-6600
▁KWIBOHORA	-6601
▁KWIMAKAZA	-6602
▁MAFARANGA	-6603
▁MALICIOUS	-6604
▁MUNYAKAZI	-6605
▁Munyakazi	-6606
▁NAMUBWIRA	-6607
▁NYAFURIKA	-6608
▁Nyafurika	-6609
▁PARFAITKU	-6610
▁PROCESSOR	-6611
▁UBUCURUZI	-6612
▁UMUBYIMBA	-6613
▁UMUKINNYI	-6614
▁UMURYANGO	-6615
▁UMUSHINGA	-6616
▁Ubuyobozi	-6617
▁WAZALENDO	-6618
▁WORDPRESS	-6619
▁Wazalendo	-6620
▁WordPress	-6621
▁YAGIRANYE	-6622
▁YAKUNDAGA	-6623
▁YANYUZEMO	-6624
▁abarwanyi	-6625
▁abasifuzi	-6626
▁amagereza	-6627
▁atazigera	-6628
▁babasebya	-6629
▁bibarutse	-6630
▁bworoshye	-6631
▁byoroshye	-6632
▁gishinzwe	-6633
▁gutangira	-6634
▁ibirarane	-6635
▁imibereho	-6636
▁inyandiko	-6637
▁iyitsinze	-6638
▁kibarirwa	-6639
▁kongerera	-6640
▁kugenzura	-6641
▁kunyereza	-6642
▁kurangira	-6643
▁kwamamaza	-6644
▁kwegukana	-6645
▁kwerekeza	-6646
▁kwibaruka	-6647
▁kwimakaza	-6648
▁mafaranga	-6649
▁malicious	-6650
▁namubwira	-6651
▁parfaitKu	-6652
▁processor	-6653
▁ubucuruzi	-6654
▁umubyimba	-6655
▁umukinnyi	-6656
▁umuryango	-6657
▁umushinga	-6658
▁yagiranye	-6659
▁yakundaga	-6660
▁yanyuzemo	-6661
INZIBACYUHO	-6662
RANGAMUTIMA	-6663
inzibacyuho	-6664
rangamutima	-6665
▁13/08/2024	-6666
▁25/11/2023	-6667
▁BAKAJYENDA	-6668
▁BASEZEREYE	-6669
▁BAYISHYURA	-6670
▁BIGARAGARA	-6671
▁BIGENDANYE	-6672
▁BINYURANYE	-6673
▁BYARANGIYE	-6674
▁Bigendanye	-6675
▁CYOHEREJWE	-6676
▁GUSAMBANYA	-6677
▁INTERESTED	-6678
▁IRADUKUNDA	-6679
▁IYAMUREMYE	-6680
▁Iradukunda	-6681
▁Iyamuremye	-6682
▁JAVASCRIPT	-6683
▁Javascript	-6684
▁KITABIRIWE	-6685
▁KUGABANYWA	-6686
▁KUGARAGARA	-6687
▁KUGENZURWA	-6688
▁KUGERAGEZA	-6689
▁MINISPORTS	-6690
▁NIYOMUGABO	-6691
▁NTANGIRIRO	-6692
▁NTUNGIYEHE	-6693
▁Niyomugabo	-6694
▁Ntungiyehe	-6695
▁PROTECTING	-6696
▁RUTAHIZAMU	-6697
▁RWISUMBUYE	-6698
▁Rutahizamu	-6699
▁Rwisumbuye	-6700
▁TURITEGUYE	-6701
▁UGUSHYINGO	-6702
▁UMWAMIKAZI	-6703
▁Ugushyingo	-6704
▁WAMUGOREWE	-6705
▁Wamugorewe	-6706
▁YABATSINZE	-6707
▁YAMUKOREYE	-6708
▁YARIRIMBWE	-6709
▁YUBAKANYWE	-6710
▁Yaririmbwe	-6711
▁bakajyenda	-6712
▁basezereye	-6713
▁bayishyura	-6714
▁bigaragara	-6715
▁binyuranye	-6716
▁byarangiye	-6717
▁byatangiye	-6718
▁gusambanya	-6719
▁interested	-6720
▁ishoramari	-6721
▁kugabanywa	-6722
▁kugaragara	-6723
▁kugenzurwa	-6724
▁kugerageza	-6725
▁ndabyibuka	-6726
▁ntangiriro	-6727
▁protecting	-6728
▁turiteguye	-6729
▁yabatsinze	-6730
▁yagerageje	-6731
▁yamukoreye	-6732
▁yashyizeho	-6733
▁yubakanywe	-6734
IKINYAMAKURU	-6735
UMUNYARWANDA	-6736
Umunyarwanda	-6737
YANDIKISHIJE	-6738
ikinyamakuru	-6739
yandikishije	-6740
▁AHAGARARANA	-6741
▁AMACAKUBIRI	-6742
▁ATAZAKOMEZA	-6743
▁BATANDUKANA	-6744
▁CORPORATION	-6745
▁Corporation	-6746
▁GUTANDUKANA	-6747
▁IFATABUGUZI	-6748
▁IKINYURANYO	-6749
▁ISHIMISHIJE	-6750
▁KAMARAMPAKA	-6751
▁KUZENGEREZA	-6752
▁MFASHWANAYO	-6753
▁MUHANZIKAZI	-6754
▁MUNYAMAKURU	-6755
▁Mfashwanayo	-6756
▁NGIRUMPATSE	-6757
▁Ngirumpatse	-6758
▁PERFORMANCE	-6759
▁Performance	-6760
▁RYAGARAGAJE	-6761
▁SUBSCRIBERS	-6762
▁TWAGIRAYEZU	-6763
▁Twagirayezu	-6764
▁YATANGIZAGA	-6765
▁ahagararana	-6766
▁amacakubiri	-6767
▁atazakomeza	-6768
▁batandukana	-6769
▁gutandukana	-6770
▁ifatabuguzi	-6771
▁ikinyuranyo	-6772
▁ishimishije	-6773
▁kamarampaka	-6774
▁muhanzikazi	-6775
▁munyamakuru	-6776
▁ryagaragaje	-6777
▁yatangizaga	-6778
tangazamakuru	-6779
▁Biteganyijwe	-6780
▁IKINSHIMISHA	-6781
▁ISHYIRAHAMWE	-6782
▁Ishyirahamwe	-6783
▁NAYISHYIZEHO	-6784
▁UGERERANYIJE	-6785
▁UMUHANZIKAZI	-6786
▁UMUNYAMAKURU	-6787
▁UMUNYARWENYA	-6788
▁Umuhanzikazi	-6789
▁WAMENYEKANYE	-6790
▁YASHIMANGIYE	-6791
▁YATEKEREZAGA	-6792
▁Yashimangiye	-6793
▁ZITANDUKANYE	-6794
▁ikinshimisha	-6795
▁nayishyizeho	-6796
▁ugereranyije	-6797
▁umunyamakuru	-6798
▁wamenyekanye	-6799
▁yatekerezaga	-6800
▁zitandukanye	-6801
FACEBOOKIZINDI	-6802
FATANYABIKORWA	-6803
FacebookIzindi	-6804
GUHARIRWINGOMA	-6805
ITANGAZAMAKURU	-6806
fatanyabikorwa	-6807
guharirwingoma	-6808
▁ABAMUKURIKIRA	-6809
▁BIKORWAREMEZO	-6810
▁INTERNATIONAL	-6811
▁International	-6812
▁KWIYAMAMARIZA	-6813
▁UMUNYAMABANGA	-6814
▁Umunyamabanga	-6815
▁abamukurikira	-6816
▁bikorwaremezo	-6817
▁kwiyamamariza	-6818
▁AKAMUHINDURIRA	-6819
▁BAKIRENGAJYIZA	-6820
▁GUSHISHIKARIZA	-6821
▁IBIKORWAREMEZO	-6822
▁akamuhindurira	-6823
▁bakirengajyiza	-6824
▁gushishikariza	-6825
▁ibikorwaremezo	-6826
MWISHUSHANYIJEHO	-6827
mwishushanyijeho	-6828
▁AGAHIMBAZAMUSYI	-6829
▁NSHINGWABIKORWA	-6830
▁Nshingwabikorwa	-6831
▁agahimbazamusyi	-6832
Eas	-6833
lly	-6834
ARCH	-6835
Alle	-6836
Easy	-6837
GNER	-6838
HEUR	-6839
IGNE	-6840
IPAN	-6841
IRST	-6842
LANG	-6843
LLER	-6844
LYNE	-6845
NDME	-6846
NION	-6847
SSAD	-6848
YLIN	-6849
ball	-6850
cept	-6851
gner	-6852
mino	-6853
minu	-6854
nerg	-6855
rcle	-6856
rvin	-6857
saac	-6858
toos	-6859
▁Gem	-6860
▁Log	-6861
▁Not	-6862
▁Tex	-6863
▁Uni	-6864
▁saa	-6865
AVAMO	-6866
Allel	-6867
BONDO	-6868
BYUBA	-6869
CANYI	-6870
DINGS	-6871
ENDEL	-6872
FORMA	-6873
HOLAN	-6874
ISAHA	-6875
KIZAN	-6876
LLIAM	-6877
MOORT	-6878
MWUGA	-6879
RAHAM	-6880
RONAU	-6881
RONIN	-6882
RWIBU	-6883
SSIEN	-6884
bondo	-6885
byuba	-6886
canyi	-6887
ccept	-6888
dengo	-6889
dette	-6890
elvin	-6891
endes	-6892
forma	-6893
gnace	-6894
iyabo	-6895
kondo	-6896
llone	-6897
lotte	-6898
mbano	-6899
RRY	-6900
oft	-6901
rry	-6902
EPFO	-6903
LLON	-6904
erry	-6905
issa	-6906
mpal	-6907
ques	-6908
sraë	-6909
ssad	-6910
▁Die	-6911
▁JAC	-6912
▁sto	-6913
INDAN	-6914
LLONE	-6915
NDERS	-6916
OULOU	-6917
cques	-6918
munau	-6919
nauts	-6920
radio	-6921
raham	-6922
rebwe	-6923
rumbu	-6924
shyin	-6925
sraël	-6926
suzum	-6927
▁ABDA	-6928
▁ABDU	-6929
▁Abdu	-6930
▁BENG	-6931
▁Coro	-6932
▁Cyri	-6933
▁Dore	-6934
▁GABY	-6935
▁Gaby	-6936
▁HOSE	-6937
▁ISRA	-6938
▁Ibyo	-6939
▁JUST	-6940
▁KURY	-6941
▁Kury	-6942
▁NOAM	-6943
▁Noam	-6944
▁Paul	-6945
▁ROHO	-6946
▁Riya	-6947
▁SUPE	-6948
▁Soft	-6949
▁Supe	-6950
▁Teta	-6951
▁UBWU	-6952
▁URWO	-6953
▁USTA	-6954
▁Usta	-6955
▁WIYE	-6956
▁ampa	-6957
▁anan	-6958
▁bino	-6959
▁dore	-6960
▁fire	-6961
▁izis	-6962
▁poro	-6963
▁unde	-6964
▁wiye	-6965
ANTALO	-6966
BAHUJE	-6967
CIWEMO	-6968
DORCAS	-6969
FUNGUO	-6970
GACIKA	-6971
HERERO	-6972
HURURA	-6973
IBYIZA	-6974
ICYISH	-6975
IGNEUR	-6976
IKINDI	-6977
Inteko	-6978
KAVAMO	-6979
LICIEN	-6980
LITIKI	-6981
MBUTSE	-6982
MBWIRA	-6983
MEROON	-6984
MUKIYE	-6985
MUSHEN	-6986
NGENGE	-6987
RABURI	-6988
RAGOYE	-6989
RIETTE	-6990
ROBERT	-6991
SIGAJE	-6992
SOZERA	-6993
SSAMBA	-6994
TEGUWE	-6995
TEGUZA	-6996
Twonge	-6997
UMWANA	-6998
URUHON	-6999
DETTE	-7000
▁ROGE	-7001
SSADOR	-7002
Ubugen	-7003
Umutwe	-7004
YABORA	-7005
YUBAKO	-7006
ZANIWE	-7007
barura	-7008
bukije	-7009
buriwe	-7010
ciwemo	-7011
derick	-7012
duzuye	-7013
eepler	-7014
firiti	-7015
funguo	-7016
gacika	-7017
garamu	-7018
geyeho	-7019
hakane	-7020
harari	-7021
herero	-7022
hierry	-7023
higika	-7024
humure	-7025
hurura	-7026
ibyiza	-7027
ikintu	-7028
ilding	-7029
indabo	-7030
ingham	-7031
kavamo	-7032
kemere	-7033
meroon	-7034
minuza	-7035
mmunau	-7036
mpanyi	-7037
ongole	-7038
ongoro	-7039
piteni	-7040
riette	-7041
rutuye	-7042
teguza	-7043
tolika	-7044
vasiyo	-7045
wutuye	-7046
yabora	-7047
yibaza	-7048
yitozo	-7049
zaniwe	-7050
▁ABDUL	-7051
▁AHIGI	-7052
▁ANAMU	-7053
▁AYISO	-7054
▁Apple	-7055
▁BIBUM	-7056
▁Bwere	-7057
▁Confé	-7058
▁Cyane	-7059
▁DIMIT	-7060
▁Energ	-7061
▁FINAN	-7062
▁HAMAS	-7063
▁Hamas	-7064
▁IGUHA	-7065
▁IGUHE	-7066
▁IMUHA	-7067
▁INDAN	-7068
▁ISAHA	-7069
▁Isaac	-7070
▁KUBWE	-7071
▁KYLIN	-7072
▁MBUZE	-7073
▁MEDIA	-7074
▁MILLI	-7075
▁MWUGA	-7076
▁Milli	-7077
▁NADIA	-7078
▁NDANA	-7079
▁NZARI	-7080
▁Nadia	-7081
▁PAULA	-7082
▁PHANN	-7083
▁Perry	-7084
▁Power	-7085
▁REPON	-7086
▁RICHA	-7087
▁ROGER	-7088
▁RULIN	-7089
▁Radio	-7090
▁Repon	-7091
▁Riyad	-7092
▁SISSI	-7093
▁SPORT	-7094
▁SUPER	-7095
▁Salon	-7096
▁Super	-7097
▁UNION	-7098
▁Zimwe	-7099
▁Daw	-7100
▁SOF	-7101
NTORE	-7102
angaa	-7103
danga	-7104
janga	-7105
▁Dawn	-7106
▁Godf	-7107
▁SOFT	-7108
GARAMU	-7109
GARARA	-7110
GERERA	-7111
GEREZE	-7112
KOMORA	-7113
SIGARA	-7114
TOREWE	-7115
anyaki	-7116
entore	-7117
gerera	-7118
sigaje	-7119
sigara	-7120
▁AMERE	-7121
▁AMEZI	-7122
▁ASAGA	-7123
▁ASATI	-7124
▁AZANA	-7125
▁Banya	-7126
▁IZUBA	-7127
▁Iraho	-7128
▁Mauri	-7129
▁NDIMI	-7130
▁Ndagu	-7131
▁Ndahi	-7132
▁PLANG	-7133
▁UTAZA	-7134
▁UTOZA	-7135
▁agiki	-7136
▁amere	-7137
▁arebe	-7138
▁asati	-7139
▁ayiso	-7140
▁bamwu	-7141
▁bibum	-7142
▁guhem	-7143
▁gutya	-7144
▁imuha	-7145
▁insta	-7146
▁isaha	-7147
▁isoza	-7148
▁izuba	-7149
▁kubwe	-7150
▁mbuze	-7151
▁mutwe	-7152
▁mvuka	-7153
▁myiza	-7154
▁ndana	-7155
▁nzari	-7156
▁radio	-7157
▁utari	-7158
▁utaza	-7159
▁yarwo	-7160
AKAGERA	-7161
AMADOLA	-7162
Akagera	-7163
BYEMEZE	-7164
GENDEWE	-7165
GURANWA	-7166
HERANWA	-7167
HOLANDI	-7168
ILDINGS	-7169
ILIYARI	-7170
Igipimo	-7171
Inkende	-7172
KUNDANA	-7173
KUNDIRO	-7174
KURWAMO	-7175
NRIETTE	-7176
OULOUSE	-7177
RIRIMBI	-7178
RIZWAHO	-7179
RONAUTS	-7180
RONGOWE	-7181
RUGAMBA	-7182
SANGIJE	-7183
SSADORS	-7184
TORERWA	-7185
UBULIKA	-7186
UGARIYE	-7187
YABYAZA	-7188
YONGEYE	-7189
ZACYAHA	-7190
ZAHEMBA	-7191
abamban	-7192
amadola	-7193
byemeza	-7194
byubahi	-7195
dangaga	-7196
gerwaho	-7197
gizwemo	-7198
hanguzi	-7199
LLU	-7200
XEL	-7201
lui	-7202
IXEL	-7203
Inko	-7204
Inte	-7205
LLUI	-7206
luia	-7207
vico	-7208
▁Flo	-7209
▁KEL	-7210
▁plu	-7211
CIATE	-7212
Igise	-7213
LLUIA	-7214
UMUCO	-7215
▁Chri	-7216
▁Data	-7217
▁RAIS	-7218
▁Zone	-7219
▁plug	-7220
Intebe	-7221
YEKANE	-7222
dovico	-7223
▁Flori	-7224
▁PIXEL	-7225
▁gukwa	-7226
▁zirin	-7227
Inkotan	-7228
LELLUIA	-7229
RECIATE	-7230
igisebo	-7231
ildings	-7232
irindwi	-7233
kundana	-7234
kundiro	-7235
kwizera	-7236
mingham	-7237
mwubaha	-7238
pimbano	-7239
ramutse	-7240
rengero	-7241
riompal	-7242
rizwaho	-7243
ronauts	-7244
rujanga	-7245
rwanywa	-7246
sangije	-7247
shakiro	-7248
tegurwa	-7249
torwaga	-7250
umukiza	-7251
uruhare	-7252
yabyaza	-7253
yanyuze	-7254
yeshuri	-7255
yirangi	-7256
▁AKANYI	-7257
▁ARAPFA	-7258
▁ASABWA	-7259
▁Accept	-7260
▁Ahunze	-7261
▁BAHATI	-7262
▁BAHUJE	-7263
▁BARAYI	-7264
▁BASAZA	-7265
▁BENGHA	-7266
▁BIHURI	-7267
▁BIKABA	-7268
▁BIRAMU	-7269
▁BIYITA	-7270
▁BURAYI	-7271
▁BUTERA	-7272
▁Bweran	-7273
▁Bwonge	-7274
▁COSTER	-7275
▁Christ	-7276
▁Circle	-7277
▁Energy	-7278
▁GRONIN	-7279
▁GUHERA	-7280
▁GUSUZU	-7281
▁GUTOZA	-7282
▁Gemini	-7283
▁Guhera	-7284
▁HABARU	-7285
▁HAKABA	-7286
▁HAMAGI	-7287
▁HARAJE	-7288
▁HUMURA	-7289
▁Haende	-7290
▁IBANGA	-7291
▁INGAHE	-7292
▁INGOHE	-7293
▁INNOVA	-7294
▁INSTAG	-7295
▁INTARE	-7296
▁IRENGE	-7297
▁ISHAKI	-7298
▁ITORWA	-7299
mvan	-7300
phon	-7301
sent	-7302
ISOKO	-7303
REMYE	-7304
ancia	-7305
ciate	-7306
inyam	-7307
jinya	-7308
mwica	-7309
yweye	-7310
BUJIJE	-7311
FATIZO	-7312
GANYWE	-7313
KUNDWA	-7314
SHIMYE	-7315
WUTUYE	-7316
ancial	-7317
bujije	-7318
dephon	-7319
fatizo	-7320
ganywe	-7321
kicuza	-7322
kundwa	-7323
mvanga	-7324
onsent	-7325
teguri	-7326
▁IDATE	-7327
▁UKAYE	-7328
▁URAMU	-7329
▁abone	-7330
▁acyan	-7331
▁ibone	-7332
▁kwacu	-7333
▁wundi	-7334
IFATIZO	-7335
RANISHA	-7336
fatirwa	-7337
ifatizo	-7338
ldephon	-7339
reciate	-7340
▁AKANGA	-7341
▁BANYWE	-7342
▁CONSEN	-7343
▁Ignace	-7344
▁Ikintu	-7345
▁Innoce	-7346
▁Irambo	-7347
▁Irasin	-7348
▁Ishoti	-7349
▁KAYISI	-7350
▁KEEPLE	-7351
▁KELVIN	-7352
▁KOMISE	-7353
▁KUMURE	-7354
▁Kanyan	-7355
▁Kayigi	-7356
▁Kayisi	-7357
▁Kelvin	-7358
▁MULLER	-7359
▁Mihigo	-7360
▁NAHAWE	-7361
▁NANONE	-7362
▁NDUMBA	-7363
▁NICUZA	-7364
▁NIMERO	-7365
▁NTIRWI	-7366
▁NUCIKA	-7367
▁Nangaa	-7368
▁RAISSA	-7369
▁RISUZU	-7370
▁Raporo	-7371
▁Repubu	-7372
▁SIPORO	-7373
▁TUTAVU	-7374
▁TWUMVA	-7375
▁UGAKAN	-7376
▁UKWIHA	-7377
▁USANGA	-7378
▁VALENT	-7379
▁WAGNER	-7380
▁WAMUGI	-7381
▁YAGUHA	-7382
▁YAHUJE	-7383
▁YAHUYE	-7384
▁YAKUBI	-7385
▁YAKUZE	-7386
▁YEMEZA	-7387
▁YIBUKI	-7388
▁YITABA	-7389
▁YUBAKA	-7390
▁YUJUJE	-7391
▁YVERRY	-7392
▁Yakuze	-7393
▁Yverry	-7394
▁ZAHAWE	-7395
▁ZARIRI	-7396
▁Zishya	-7397
▁ambera	-7398
▁ampaga	-7399
rch	-7400
PORE	-7401
SHYIN	-7402
earch	-7403
▁abih	-7404
arirwa	-7405
yemeza	-7406
▁MBIHA	-7407
Harirwa	-7408
KOZWEHO	-7409
KWEMEZA	-7410
MBANYWE	-7411
VUZWEHO	-7412
dakwiye	-7413
gakwiye	-7414
▁AGENDA	-7415
▁IMPORE	-7416
▁MUTESI	-7417
▁Search	-7418
▁agenda	-7419
▁angana	-7420
▁aramwi	-7421
▁asabwa	-7422
▁atange	-7423
▁babizi	-7424
▁bakozi	-7425
▁basaza	-7426
▁biciwe	-7427
▁binini	-7428
▁bitana	-7429
▁burasi	-7430
▁gucaki	-7431
▁gucamo	-7432
▁gusoho	-7433
▁gutoza	-7434
▁habaru	-7435
▁hatowe	-7436
▁hazaza	-7437
▁huriro	-7438
▁ibyihe	-7439
▁instal	-7440
▁ishoti	-7441
▁kinyam	-7442
▁korali	-7443
▁kuruhu	-7444
▁masaha	-7445
▁mugoro	-7446
▁nahawe	-7447
▁nibuka	-7448
▁nimero	-7449
▁ninjye	-7450
▁plugin	-7451
▁rizayi	-7452
▁sinjya	-7453
▁twumva	-7454
▁usanga	-7455
▁waraye	-7456
▁wiyegu	-7457
▁yaguri	-7458
▁yatore	-7459
▁yibuka	-7460
▁yitaba	-7461
▁yubaka	-7462
▁yujuje	-7463
▁zahawe	-7464
▁zisiga	-7465
AMASHURI	-7466
ANATUMYE	-7467
ANIRANYE	-7468
BIGERAHO	-7469
DUCATION	-7470
ENYEKANE	-7471
FUNGURWA	-7472
GANYIJWE	-7473
GARIYEMO	-7474
GUSUBIZA	-7475
HANGANGE	-7476
HEREREZA	-7477
INJIRAMO	-7478
IRINGIYE	-7479
KOREWEMO	-7480
KUNDISHA	-7481
PAGARARA	-7482
POLITIKI	-7483
RANYWAMO	-7484
RUSHANWA	-7485
SEZERAHO	-7486
SEZERERA	-7487
SHINGANO	-7488
SUBIYEMO	-7489
TANAVAMO	-7490
TEGETSWE	-7491
TIMETERO	-7492
TOROSHYE	-7493
TSINDIRA	-7494
WIHERERO	-7495
WIRIYEMO	-7496
YABOREYE	-7497
YAKENEYE	-7498
YAMPINGA	-7499
com	-7500
▁COM	-7501
▁IHEN	-7502
▁SOMA	-7503
▁azwi	-7504
▁ihen	-7505
▁joro	-7506
ANGIZA	-7507
GAMIRA	-7508
HURIRO	-7509
KORANO	-7510
RUGERO	-7511
gariro	-7512
inzego	-7513
subije	-7514
wahoze	-7515
zerano	-7516
▁COMMU	-7517
▁KAMIN	-7518
▁KENNE	-7519
▁Kenne	-7520
▁MFURA	-7521
▁Tikto	-7522
▁UBAZA	-7523
▁WUMVA	-7524
▁hazwi	-7525
▁ihera	-7526
▁mfura	-7527
▁mwuga	-7528
▁rizwi	-7529
▁ubaza	-7530
▁ukina	-7531
GERWAHO	-7532
IHURIRO	-7533
ONIFASH	-7534
bangami	-7535
hangana	-7536
ririmbi	-7537
uwahoze	-7538
vugwaga	-7539
▁BAHOZE	-7540
▁IHEMBA	-7541
▁IHENDU	-7542
▁KAMINU	-7543
▁KENNED	-7544
▁KIGERO	-7545
▁Kenned	-7546
▁Tiktok	-7547
▁UBASHE	-7548
▁Umwana	-7549
▁bakina	-7550
▁ihendu	-7551
▁ingana	-7552
▁mateka	-7553
▁mpesha	-7554
YEGEREZE	-7555
ZAGERAHO	-7556
agatsiko	-7557
anditswe	-7558
bwicanyi	-7559
cikiriza	-7560
ducation	-7561
duteguri	-7562
enriette	-7563
gerazuba	-7564
gereraho	-7565
gurishwa	-7566
gusubiza	-7567
herereza	-7568
igikombe	-7569
inabyeme	-7570
iringiye	-7571
kompanyi	-7572
korewemo	-7573
mababaje	-7574
mugezeho	-7575
ongeyeho	-7576
ranyijwe	-7577
ranywaga	-7578
ranywamo	-7579
rederick	-7580
ririmbwa	-7581
rmingham	-7582
rushanwa	-7583
shongoro	-7584
sosiyete	-7585
timvanga	-7586
toroshye	-7587
ubugingo	-7588
umuhanda	-7589
umuhungu	-7590
vugirije	-7591
wiherero	-7592
wusubiza	-7593
yisubije	-7594
yitegeka	-7595
yugariro	-7596
zahembwa	-7597
▁ABAHOZE	-7598
▁ABDALLA	-7599
RVIN	-7600
erge	-7601
erna	-7602
neur	-7603
pani	-7604
vena	-7605
REBWE	-7606
gneur	-7607
Abanya	-7608
KANIRA	-7609
TANIRA	-7610
Urwego	-7611
atwara	-7612
ernard	-7613
igneur	-7614
injije	-7615
yapani	-7616
▁HAZWI	-7617
▁Rulin	-7618
▁Serge	-7619
▁urwan	-7620
BAKUNZE	-7621
GUTWARA	-7622
▁Butera	-7623
▁ISHAJE	-7624
▁Jevena	-7625
▁KUBIBA	-7626
▁MARVIN	-7627
▁NYUNGU	-7628
▁RYUNGU	-7629
▁UMUCYO	-7630
▁Urwego	-7631
▁YASORE	-7632
▁bisaga	-7633
▁inzira	-7634
▁ndende	-7635
▁shusho	-7636
▁yatora	-7637
REKANIRA	-7638
REKEZAMO	-7639
YEGUKANA	-7640
aniranye	-7641
isanzure	-7642
rekezamo	-7643
yegukana	-7644
▁ABONEKA	-7645
▁ABRAHAM	-7646
▁AFASHWA	-7647
▁AFATIKA	-7648
▁AGEZEHO	-7649
▁AKORANA	-7650
▁AKUNZWE	-7651
▁AMAZEMO	-7652
▁AMENDME	-7653
▁ANAKORE	-7654
▁ANYAMBA	-7655
▁ASATIRA	-7656
▁ASHINJA	-7657
▁ATARAMU	-7658
▁AYISOJE	-7659
▁Abraham	-7660
▁Akagera	-7661
▁BABYAYE	-7662
▁BAKANGA	-7663
▁BAMBARA	-7664
▁BASHOYE	-7665
▁BIGIZWE	-7666
▁BIJYANA	-7667
▁BIKUNZE	-7668
▁BITAJYA	-7669
▁BIVUGWA	-7670
▁BONGERE	-7671
▁BUBUNGA	-7672
▁BYAHOZE	-7673
▁Bernard	-7674
▁Bizajya	-7675
▁Breakfa	-7676
▁Byagize	-7677
▁CASSIEN	-7678
▁CHRISTE	-7679
▁CLAVIER	-7680
▁COMMUNA	-7681
▁Cadette	-7682
▁Christa	-7683
▁DIMITRI	-7684
▁FINANCE	-7685
▁Finance	-7686
▁GUTORWA	-7687
▁Georges	-7688
▁HAENDEL	-7689
▁HAKWIYE	-7690
▁HAREBWE	-7691
▁Haendel	-7692
▁IBISUBI	-7693
▁IBYANDI	-7694
▁IDASABA	-7695
▁IDATEZE	-7696
▁IDATSIN	-7697
▁IFATIKA	-7698
▁IHERERE	-7699
MPO	-7700
mpo	-7701
pfo	-7702
CIAL	-7703
Epfo	-7704
MPAN	-7705
NARD	-7706
RDON	-7707
dard	-7708
hard	-7709
rard	-7710
▁Meh	-7711
▁and	-7712
DRIEN	-7713
RNARD	-7714
RWANI	-7715
ahuza	-7716
butso	-7717
érard	-7718
▁Laws	-7719
▁Mehf	-7720
▁TSIN	-7721
▁apfa	-7722
HIGIKA	-7723
INJIJE	-7724
KAZAGA	-7725
KOMPAN	-7726
RWANGO	-7727
TAKAZA	-7728
VUMERA	-7729
ichard	-7730
licien	-7731
muhuza	-7732
▁BAMPO	-7733
▁Bampo	-7734
▁Mujyi	-7735
▁STARS	-7736
▁UKAYI	-7737
▁UKIRI	-7738
▁ukiri	-7739
RWANIYE	-7740
byemera	-7741
umufana	-7742
wibutso	-7743
élicien	-7744
▁ADRIEN	-7745
▁BARWAN	-7746
▁BIKAZA	-7747
▁GUHUZA	-7748
▁GUTORA	-7749
▁Gérard	-7750
▁HAKAZA	-7751
▁KIKAZA	-7752
▁Medard	-7753
▁TSINDA	-7754
▁YATORA	-7755
▁ZIRIYA	-7756
▁bafata	-7757
▁mibare	-7758
▁rukaza	-7759
▁yaraye	-7760
DAKAZAGA	-7761
KOMPANYI	-7762
MATEGEKO	-7763
MUSARURO	-7764
TARAFATA	-7765
TORAGURA	-7766
andakaza	-7767
kazabera	-7768
tarafata	-7769
▁BERNARD	-7770
▁Christe	-7771
▁IHIGIKA	-7772
▁IKENEWE	-7773
▁IKIGAMI	-7774
▁IKIGUZI	-7775
▁IKIMERO	-7776
▁INTONDE	-7777
▁IRUSHWA	-7778
▁ISHUSHO	-7779
▁IVUGURU	-7780
▁IWANJYE	-7781
▁Ibarura	-7782
▁Ihuriro	-7783
▁Iminara	-7784
▁Innocen	-7785
▁Irahoza	-7786
▁Iritara	-7787
▁Jacques	-7788
▁KENNEDY	-7789
▁KIGIZWE	-7790
▁KINDIKI	-7791
▁KUBYARA	-7792
▁KUREBWA	-7793
▁KURUJYI	-7794
▁KWANJYE	-7795
▁KWEMERA	-7796
▁Keepler	-7797
▁MAKENGA	-7798
▁MASHURI	-7799
ERRY	-7800
kris	-7801
DACYA	-7802
LARIS	-7803
RISTU	-7804
atube	-7805
laris	-7806
remyi	-7807
▁Name	-7808
HIERRY	-7809
KRISTU	-7810
MUHAYE	-7811
RIMARA	-7812
atubes	-7813
bagiwe	-7814
kenera	-7815
kristu	-7816
rimara	-7817
▁BYEGE	-7818
▁kurya	-7819
▁might	-7820
BAGIRWE	-7821
NAMOORT	-7822
URUHARE	-7823
bagirwe	-7824
kurwamo	-7825
sanzura	-7826
shimira	-7827
shimiye	-7828
tirirwa	-7829
torerwa	-7830
▁BUKENE	-7831
▁INZIRA	-7832
▁KUMARA	-7833
▁NTICYA	-7834
▁UNDERS	-7835
▁YAMUSI	-7836
▁bitero	-7837
▁bukene	-7838
▁nicuza	-7839
▁nyacyo	-7840
▁risaba	-7841
▁umucyo	-7842
▁yakini	-7843
GARURIYE	-7844
ikimenya	-7845
ipantalo	-7846
onatubes	-7847
politiki	-7848
umuremyi	-7849
yibagiwe	-7850
zageraho	-7851
▁AKIBONA	-7852
▁BANGANA	-7853
▁BINGANA	-7854
▁IBYANGO	-7855
▁KWITIRI	-7856
▁MILLION	-7857
▁MPAPURO	-7858
▁MUHANDA	-7859
▁MUHANGO	-7860
▁MURONGO	-7861
▁MYITOZO	-7862
▁Makenga	-7863
▁Malotte	-7864
▁Maurice	-7865
▁NAMBARA	-7866
▁NARINDI	-7867
▁NIWUMVA	-7868
▁NKIRIHO	-7869
▁NYUBAKO	-7870
▁Namenye	-7871
▁Niwumva	-7872
▁PALLONE	-7873
▁PHANUEL	-7874
▁POLARIS	-7875
▁POWERED	-7876
▁Pallone	-7877
▁Polaris	-7878
▁REPONSE	-7879
▁RICHARD	-7880
▁RIDACYA	-7881
▁RIGENGA	-7882
▁RIKANGA	-7883
▁RIZABAN	-7884
▁RIZAJYA	-7885
▁RUHANGO	-7886
▁Reponse	-7887
▁Richard	-7888
▁Ruhango	-7889
▁SINABYE	-7890
▁SOFTBAN	-7891
▁Sentore	-7892
▁Softban	-7893
▁THIERRY	-7894
▁UKUBOKO	-7895
▁UMUFANA	-7896
▁UMUKORO	-7897
▁UTEGEKA	-7898
▁UYOBOWE	-7899
▁War	-7900
MBUYE	-7901
tsiro	-7902
▁Gron	-7903
▁Paro	-7904
▁Timo	-7905
REMEZA	-7906
korano	-7907
remeza	-7908
shatsi	-7909
vumera	-7910
▁ACYAN	-7911
▁Timot	-7912
▁ahuza	-7913
▁ibuye	-7914
▁yiton	-7915
ABABURA	-7916
Itegeko	-7917
TEGURWA	-7918
turutse	-7919
▁Gronin	-7920
▁IFASHI	-7921
▁MASAHA	-7922
▁Parole	-7923
▁Rukiko	-7924
▁Timoth	-7925
▁UTATSE	-7926
▁Warren	-7927
▁YARADU	-7928
▁YARAYE	-7929
▁ahunze	-7930
▁ifashi	-7931
▁kuvuza	-7932
▁rukiko	-7933
ABAKUNZI	-7934
ICYISHON	-7935
KINIRAGA	-7936
ZAGARUKA	-7937
abakunzi	-7938
mategeko	-7939
▁BABASHA	-7940
▁BUGENZU	-7941
▁NGARUKA	-7942
▁Rutsiro	-7943
▁TUBASHE	-7944
▁Timothy	-7945
▁Ufunguo	-7946
▁Umhanzi	-7947
▁Urugero	-7948
▁WAGIZWE	-7949
▁WAJYAGA	-7950
▁YAGUMYE	-7951
▁YAGUTSE	-7952
▁YAHANWA	-7953
▁YAHUNGA	-7954
▁YANAKWI	-7955
▁YANGAGA	-7956
▁YASINYE	-7957
▁YATORWA	-7958
▁YIFASHI	-7959
▁YIHEBYE	-7960
▁YVERDON	-7961
▁ZABASHA	-7962
▁abahoze	-7963
▁abyazwe	-7964
▁afashwa	-7965
▁afatika	-7966
▁afitemo	-7967
▁agasaba	-7968
▁agasoza	-7969
▁ahazaza	-7970
▁akayabo	-7971
▁akibona	-7972
▁akunzwe	-7973
▁amazemo	-7974
▁amerewe	-7975
▁amubera	-7976
▁arambwi	-7977
▁asangwa	-7978
▁asatira	-7979
▁ashinja	-7980
▁asigara	-7981
▁atabaza	-7982
▁ayisoje	-7983
▁ayisubi	-7984
▁azasura	-7985
▁babyaye	-7986
▁bagenda	-7987
▁bajyaga	-7988
▁bakamwi	-7989
▁bakunzi	-7990
▁bakwiye	-7991
▁bangiri	-7992
▁bavugwa	-7993
▁bibyara	-7994
▁birusha	-7995
▁bonyine	-7996
▁bugenzu	-7997
▁byahoze	-7998
▁byiciro	-7999
ICK	-8000
igh	-8001
ICYA	-8002
NICK	-8003
TONO	-8004
eigh	-8005
▁New	-8006
▁Sub	-8007
BITSI	-8008
KUMVA	-8009
RENZI	-8010
YUMVA	-8011
▁MEDA	-8012
▁News	-8013
▁Raja	-8014
▁Tali	-8015
▁aham	-8016
KURIYE	-8017
RWANYA	-8018
SELYNE	-8019
SHATSI	-8020
TONORA	-8021
burasi	-8022
eights	-8023
rwanya	-8024
▁Koman	-8025
▁MUTWE	-8026
▁Muren	-8027
▁NDAGU	-8028
▁NDAHI	-8029
▁RUTSI	-8030
▁buren	-8031
INDWARA	-8032
SANZURA	-8033
SHYITSI	-8034
Uburasi	-8035
ababura	-8036
gendera	-8037
▁BAKOZI	-8038
▁BARABA	-8039
▁BITANU	-8040
▁Inteko	-8041
▁MEDARD	-8042
▁NKUMVA	-8043
▁RUKAZA	-8044
▁Taliki	-8045
▁ahabwa	-8046
▁ahamya	-8047
▁ahatan	-8048
▁ahindu	-8049
▁gatanu	-8050
▁ibyara	-8051
▁nticya	-8052
▁ziriya	-8053
ABAKOBWA	-8054
DAHUMEKA	-8055
HAGARIKI	-8056
ZITONORA	-8057
ZOBEREYE	-8058
abakobwa	-8059
aniyandi	-8060
hindurwa	-8061
tubereye	-8062
▁Agaruka	-8063
▁BIYUMVA	-8064
▁Heights	-8065
▁IKOMEJE	-8066
▁Komanda	-8067
▁MURENZI	-8068
▁Murenzi	-8069
▁NDAHIRO	-8070
▁Phanuel	-8071
▁RUTSIRO	-8072
▁YANNICK	-8073
▁ahakana	-8074
▁anakore	-8075
▁byihuse	-8076
▁consent	-8077
▁duhabwa	-8078
▁gitanda	-8079
▁gutinda	-8080
▁gutorwa	-8081
▁hakozwe	-8082
▁harebwe	-8083
▁ibisubi	-8084
▁iboneka	-8085
▁idasaba	-8086
▁idatsin	-8087
▁ifatika	-8088
▁igitabo	-8089
▁ihagara	-8090
▁iherere	-8091
▁ikenewe	-8092
▁ikomeje	-8093
▁impamvu	-8094
▁indwara	-8095
▁inshuro	-8096
▁iramara	-8097
▁ishiman	-8098
▁kubyara	-8099
LUG	-8100
JAWA	-8101
TAWU	-8102
UKWE	-8103
WUVU	-8104
ller	-8105
ukwe	-8106
KWETO	-8107
LUGIN	-8108
kweto	-8109
▁Basi	-8110
▁NYMA	-8111
FITIWE	-8112
LUGINS	-8113
REKIRE	-8114
WUVUMA	-8115
giriye	-8116
igaban	-8117
kuriye	-8118
liyari	-8119
riyemo	-8120
tekere	-8121
▁BWERE	-8122
▁Basic	-8123
▁Ikiza	-8124
▁izana	-8125
▁rayon	-8126
GABANYU	-8127
WANDIKO	-8128
iliyari	-8129
kwiriye	-8130
sterton	-8131
▁BATAYA	-8132
▁BWERAN	-8133
▁IBYARA	-8134
▁IRASIN	-8135
▁KUYIBA	-8136
▁MUJAWA	-8137
▁Muller	-8138
▁YABATI	-8139
▁batari	-8140
▁batazi	-8141
▁kuyiba	-8142
▁yabaga	-8143
GERERAHO	-8144
RWANDIKO	-8145
UBUTUMWA	-8146
UKWEMERA	-8147
WUSUBIZA	-8148
mmunaute	-8149
ubutumwa	-8150
ukwemera	-8151
wiriyemo	-8152
▁AKIVUKA	-8153
▁IFITIWE	-8154
▁INKWETO	-8155
▁IZAKIRA	-8156
▁PLUGINS	-8157
▁SINGIZA	-8158
▁UKUTAWU	-8159
▁YAKOZWE	-8160
▁ZIGABAN	-8161
▁arahora	-8162
▁inkweto	-8163
▁intumwa	-8164
▁izahita	-8165
▁izakira	-8166
▁kwanjye	-8167
▁kwikura	-8168
▁mashini	-8169
▁mpapuro	-8170
▁mugenzi	-8171
▁muhanda	-8172
▁narindi	-8173
▁nduzuye	-8174
▁ngaruka	-8175
▁nkatera	-8176
▁ridacya	-8177
▁rigenga	-8178
▁rikanga	-8179
▁risuzum	-8180
▁rizajya	-8181
▁tubashe	-8182
▁udushya	-8183
▁uhoraho	-8184
▁ukuboko	-8185
▁umukoro	-8186
▁umupaka	-8187
▁urukiko	-8188
▁urwango	-8189
▁utagira	-8190
▁utegeka	-8191
▁uyobowe	-8192
▁uzagira	-8193
▁wafashe	-8194
▁wagenze	-8195
▁wanyuze	-8196
▁winjiye	-8197
▁witabye	-8198
▁yabanje	-8199
ADS	-8200
iad	-8201
VICO	-8202
inja	-8203
llas	-8204
read	-8205
▁Bae	-8206
▁CIR	-8207
▁Sau	-8208
▁ifi	-8209
ADANA	-8210
ENTER	-8211
READS	-8212
dalla	-8213
kumva	-8214
pinja	-8215
reads	-8216
singi	-8217
walla	-8218
▁Baca	-8219
▁Baha	-8220
▁CIRC	-8221
▁LUDO	-8222
▁Viad	-8223
IADANA	-8224
dallah	-8225
riraho	-8226
yahaga	-8227
▁Ageze	-8228
▁Bashi	-8229
▁Ibiro	-8230
▁Saudi	-8231
▁TERAM	-8232
▁UZAMU	-8233
▁ibifi	-8234
▁ikura	-8235
▁teram	-8236
NYEZAMU	-8237
byarira	-8238
impinja	-8239
indwara	-8240
singizo	-8241
zamutse	-8242
▁BATAKI	-8243
▁Bahati	-8244
▁Bashir	-8245
▁CENTER	-8246
▁CIRCLE	-8247
▁DREADS	-8248
▁Dallas	-8249
▁Dreads	-8250
▁Intego	-8251
▁MPUNZE	-8252
▁MUKURA	-8253
▁Raissa	-8254
▁Swalla	-8255
▁icyifu	-8256
▁nkumva	-8257
▁stores	-8258
IPANTALO	-8259
SUBIRAMO	-8260
garurira	-8261
▁AFITEMO	-8262
▁AMASOKO	-8263
▁ISHIMAN	-8264
▁VIADANA	-8265
▁Viadana	-8266
▁ibifiti	-8267
▁ifitiwe	-8268
▁yahanwa	-8269
▁yakozwe	-8270
▁yanakwi	-8271
▁yaraman	-8272
▁yasinye	-8273
▁yinjiye	-8274
▁yitonda	-8275
ALLELLUIA	-8276
BIMUSABYE	-8277
FASHISHWA	-8278
GABANYUKA	-8279
GENZURAMI	-8280
HANGAMURA	-8281
IBYISHIMO	-8282
IMIKORERE	-8283
INYANDIKO	-8284
IYABOREYE	-8285
Indirimbo	-8286
KANAMENYA	-8287
KIYONGERA	-8288
NAMOORTHI	-8289
NYAMPINGA	-8290
REGANZIRA	-8291
RENGAGIJE	-8292
REREKANYA	-8293
RIRIMBANA	-8294
SANGANYWE	-8295
STRONAUTS	-8296
SUBIRWAHO	-8297
TANDUKANE	-8298
UMUGABANE	-8299
ick	-8300
ubw	-8301
icye	-8302
nick	-8303
▁ejo	-8304
CUNGU	-8305
SONGA	-8306
ibigo	-8307
songa	-8308
zengu	-8309
▁DUHU	-8310
▁Muja	-8311
▁duhu	-8312
▁duse	-8313
▁impo	-8314
GABIHE	-8315
RIRAHO	-8316
TEGURO	-8317
YEMEZA	-8318
icyeza	-8319
shyuje	-8320
▁Adele	-8321
▁SINZA	-8322
▁ikagu	-8323
CUNGURE	-8324
GAMANZI	-8325
byavuye	-8326
himbaje	-8327
ibihugu	-8328
imikore	-8329
umushyu	-8330
▁BAGEZE	-8331
▁DUHUZE	-8332
▁Mujawa	-8333
▁TUBAHO	-8334
▁UTAMWU	-8335
▁YAKEMU	-8336
▁bihuri	-8337
▁duhuze	-8338
▁impore	-8339
▁mahoro	-8340
▁zishyu	-8341
RANKENDE	-8342
SANZWEHO	-8343
YITSINDA	-8344
sanzweho	-8345
▁AGATUMA	-8346
▁TUGOMBA	-8347
▁Yannick	-8348
▁ZIGOMBA	-8349
▁amafoto	-8350
▁dusenga	-8351
▁kizengu	-8352
ABADEPITE	-8353
GENGABIHE	-8354
IBISANZWE	-8355
UMUNEZERO	-8356
WINJIRIZA	-8357
YONGEREZA	-8358
YONGEYEHO	-8359
YUMVISEMO	-8360
ZATANGIRA	-8361
ZIGAMANZI	-8362
abarutuye	-8363
bangamira	-8364
formation	-8365
gurishaga	-8366
gwiriyemo	-8367
ibirarane	-8368
ibisanzwe	-8369
ibyishimo	-8370
icyumweru	-8371
imikorere	-8372
inabyemez	-8373
indangaga	-8374
itumanaho	-8375
iyaboreye	-8376
kanamenya	-8377
kiyongera	-8378
nyarwenya	-8379
ramukunze	-8380
reganzira	-8381
rengagiza	-8382
rwanirira	-8383
sanganywe	-8384
shyingiye	-8385
shyurirwa	-8386
tandukane	-8387
tekerezwa	-8388
umutekano	-8389
winjiriza	-8390
yambarira	-8391
yambarire	-8392
yoherejwe	-8393
yongereza	-8394
zabyarira	-8395
zamutseho	-8396
zatangira	-8397
zibagirwa	-8398
ÉDERATION	-8399
CIYE	-8400
LLAS	-8401
▁SAA	-8402
▁SAL	-8403
▁SAU	-8404
WALLA	-8405
▁Bodi	-8406
▁JEVE	-8407
▁JORO	-8408
▁Love	-8409
▁SADI	-8410
DACIYE	-8411
SHYUZA	-8412
ZIRIZA	-8413
gereye	-8414
kinike	-8415
mamaye	-8416
rizamo	-8417
▁BANYU	-8418
▁Gitwa	-8419
▁MUNGU	-8420
▁NANGA	-8421
▁SALLY	-8422
▁SAUDI	-8423
▁abike	-8424
▁ijuru	-8425
▁yanze	-8426
BYEMEZA	-8427
TURUTSE	-8428
YANDIKA	-8429
itsinda	-8430
shereza	-8431
▁Babona	-8432
▁Bodibe	-8433
▁DALLAS	-8434
▁GUSOHO	-8435
▁GUTEKE	-8436
▁JEVENA	-8437
▁NANGAA	-8438
▁SWALLA	-8439
▁YISHYU	-8440
▁ZISHYU	-8441
▁abonye	-8442
▁anyaki	-8443
▁ihemba	-8444
▁tsinda	-8445
▁tubaho	-8446
▁yahuje	-8447
SHYUSHYA	-8448
Umuhanzi	-8449
yitsinda	-8450
▁ARAHORA	-8451
▁CYISHYU	-8452
▁Gitwaza	-8453
▁IMIPIRA	-8454
▁UBURIZA	-8455
▁Uburiza	-8456
▁byamama	-8457
▁kwishyu	-8458
▁tugomba	-8459
▁zigomba	-8460
BANZIRIZA	-8461
YANDIKAHO	-8462
yongereye	-8463
▁ABYEMEZA	-8464
▁ABYICUZA	-8465
▁ACYANGWA	-8466
▁AGAKIZAN	-8467
▁AGANISHA	-8468
▁AGATSIKO	-8469
▁AMASHURI	-8470
▁AMUSANGA	-8471
▁ANANGIZA	-8472
▁ARANGIYE	-8473
▁ARIRIMBA	-8474
▁ASHINZWE	-8475
▁ATABYUBA	-8476
▁ATANDATU	-8477
▁ATORERWA	-8478
▁AUGUSTIN	-8479
▁AYIKUNDA	-8480
▁AZAHABWA	-8481
▁AZONGERA	-8482
▁BADAFITE	-8483
▁BADAHUZA	-8484
▁BADATEWE	-8485
▁BAHISEMO	-8486
▁BAHORAHO	-8487
▁BAKORAGA	-8488
▁BAKURIYE	-8489
▁BANDITSE	-8490
▁BANYUZWE	-8491
▁BANYWEYE	-8492
▁BARAGIZE	-8493
▁BASANZWE	-8494
▁BASOBANU	-8495
▁BATSINZE	-8496
▁BAWUTUYE	-8497
▁BAZAKORA	-8498
▁BIGATUMA	-8499
bwu	-8500
Zira	-8501
ciye	-8502
wuka	-8503
▁Fir	-8504
ATUBE	-8505
CANCU	-8506
IBICE	-8507
MWITA	-8508
YUZWA	-8509
bwuzu	-8510
zwamo	-8511
▁GODF	-8512
▁IKWI	-8513
ATUBES	-8514
BYAZWA	-8515
GIKOZE	-8516
KINIRA	-8517
MAMAYE	-8518
TWATSI	-8519
daciye	-8520
garuye	-8521
injiza	-8522
kibana	-8523
rakoze	-8524
▁Chita	-8525
▁First	-8526
▁Frank	-8527
▁IJURU	-8528
▁ahita	-8529
▁impun	-8530
CANCURO	-8531
IBIHUGU	-8532
YUZWAMO	-8533
tegetsi	-8534
yuzwamo	-8535
▁GODFRE	-8536
▁KORALI	-8537
▁TWAKWI	-8538
▁Wagner	-8539
▁YATEGE	-8540
▁babana	-8541
▁ubwuzu	-8542
▁umwuka	-8543
▁wamara	-8544
▁yamuha	-8545
KOMEREYE	-8546
ONATUBES	-8547
SHOBOZWA	-8548
TEGEREZA	-8549
garubuga	-8550
shyizemo	-8551
tsindira	-8552
▁AGAHITA	-8553
▁BAKUNZI	-8554
▁BYAMAMA	-8555
▁GODFREY	-8556
▁TWAKOZE	-8557
▁UKINIRA	-8558
▁UTWATSI	-8559
▁YAHUNZE	-8560
▁agahita	-8561
▁ibitego	-8562
▁ntakoze	-8563
▁twakoze	-8564
▁uguhuza	-8565
GURISHIJE	-8566
MENYEREYE	-8567
menyereye	-8568
▁BIHAGIJE	-8569
▁BIHAMBWE	-8570
▁BIHURIYE	-8571
▁BITARAVA	-8572
▁BITEGUYE	-8573
▁BIYEMEZA	-8574
▁BIZAGIRA	-8575
▁BIZAZANA	-8576
▁BONIFASH	-8577
▁BUKORANO	-8578
▁BYAMBURA	-8579
▁BYATUMYE	-8580
▁BYAVUGWA	-8581
▁BYIGENGA	-8582
▁BYISHIMO	-8583
▁Buyapani	-8584
▁Byatanga	-8585
▁CAMEROON	-8586
▁Cameroon	-8587
▁Cyumweru	-8588
▁DUKOMEJE	-8589
▁DUSHYIZE	-8590
▁Fredrick	-8591
▁GATOLIKA	-8592
▁GITEGUZA	-8593
▁GUHASHYA	-8594
▁GUHEMBWA	-8595
▁GUKURAHO	-8596
▁GUSEZERA	-8597
▁GUSOBANU	-8598
▁Gatolika	-8599
▁es	-8600
TOOS	-8601
nini	-8602
HONSE	-8603
IBIRO	-8604
TOTSI	-8605
bitsi	-8606
ugene	-8607
▁Mike	-8608
▁Mimi	-8609
▁aram	-8610
REKEZO	-8611
TEGURA	-8612
engura	-8613
rebaga	-8614
rekezo	-8615
ruguru	-8616
teguwe	-8617
▁AGIKI	-8618
▁arayi	-8619
▁ireba	-8620
▁kwere	-8621
BANUTSE	-8622
KANGURA	-8623
fungura	-8624
gurutse	-8625
▁ASANZE	-8626
▁BAGURA	-8627
▁CYITWA	-8628
▁Eugene	-8629
▁IRENGA	-8630
▁MUREBA	-8631
▁MUREKE	-8632
▁NAREBA	-8633
▁TATOOS	-8634
▁TUREBA	-8635
▁TWEBWE	-8636
▁aramfu	-8637
▁irenga	-8638
▁mureba	-8639
▁nkunda	-8640
▁runini	-8641
▁tureba	-8642
▁ubashe	-8643
▁yarwan	-8644
DEPHONSE	-8645
shengura	-8646
▁AKAREBA	-8647
▁Abarimo	-8648
▁IBARURA	-8649
▁KWIKURA	-8650
▁MUKUNDA	-8651
▁RYINSHI	-8652
▁UKUREBA	-8653
▁YABANJE	-8654
▁abagore	-8655
▁aravuze	-8656
▁bagenzi	-8657
▁bwinshi	-8658
▁ikiguzi	-8659
▁kwegura	-8660
▁rwinshi	-8661
LDEPHONSE	-8662
Nyaruguru	-8663
▁AGATOTSI	-8664
▁ASANZEYO	-8665
▁BUKOMEZA	-8666
▁HABAYEHO	-8667
▁HADACIYE	-8668
▁HAKENEWE	-8669
▁HAKIZIMA	-8670
▁HARABURA	-8671
▁HARAJEMO	-8672
▁HARANIRA	-8673
▁HAZABAHO	-8674
▁Haranira	-8675
▁ICYAKOZE	-8676
▁IGENZURA	-8677
▁IKIBONDO	-8678
▁IKWIRIYE	-8679
▁IMITUNGO	-8680
▁IMURITSE	-8681
▁IPANTALO	-8682
▁ISHAKIRO	-8683
▁ISHINZWE	-8684
▁Ibyavuye	-8685
▁Innocent	-8686
▁Irambona	-8687
▁Isaacman	-8688
▁Ishinzwe	-8689
▁KABAHAYE	-8690
▁KAMINUZA	-8691
▁KAYISUBI	-8692
▁KAYITESI	-8693
▁KIJYANYE	-8694
▁KOHEREZA	-8695
▁KOMISERI	-8696
▁KUBONEKA	-8697
▁KUDASOZA	-8698
▁KUDATARA	-8699
EJO	-8700
HFI	-8701
ancu	-8702
HFIRA	-8703
MWICA	-8704
WONGE	-8705
cancu	-8706
jejwe	-8707
remye	-8708
ubucu	-8709
▁AZAM	-8710
▁Ango	-8711
▁Buge	-8712
▁Kavi	-8713
▁SIBO	-8714
TWONGE	-8715
bahuje	-8716
rugero	-8717
umwami	-8718
▁ABIKE	-8719
▁ISURA	-8720
▁Igihe	-8721
▁Ntawu	-8722
▁byacu	-8723
▁twaba	-8724
▁utora	-8725
GUFASHA	-8726
IGISEBO	-8727
KORESHE	-8728
amakipe	-8729
cancuro	-8730
▁Angola	-8731
▁Bugese	-8732
▁KUBIKA	-8733
▁Kabiri	-8734
▁Kagera	-8735
▁Kavita	-8736
▁bihuza	-8737
▁makipe	-8738
▁sinjye	-8739
▁unders	-8740
▁yemeza	-8741
IRIRITSE	-8742
SHYIZEMO	-8743
SOBANURO	-8744
UBUGINGO	-8745
ZISHYIZE	-8746
kwitwara	-8747
ubucungu	-8748
ubufasha	-8749
▁BIFASHA	-8750
▁GIFASHA	-8751
▁KUMWICA	-8752
▁MAGINGO	-8753
▁MEHFIRA	-8754
▁Ntawuvu	-8755
▁UHORAHO	-8756
▁agezeho	-8757
▁bifasha	-8758
▁ikemere	-8759
▁yangaga	-8760
▁zijejwe	-8761
CIRIRITSE	-8762
TARARENGA	-8763
▁ABIKESHA	-8764
▁Bugesera	-8765
▁KUGANIRA	-8766
▁KUMUTERA	-8767
▁KUREBERA	-8768
▁KUTABONA	-8769
▁KUTAGERA	-8770
▁KUYIZANA	-8771
▁KUZAKORA	-8772
▁KUZAMURA	-8773
▁KUZATUMA	-8774
▁KUZIKORA	-8775
▁KUZINGWA	-8776
▁KWAMBURA	-8777
▁Kaminuza	-8778
▁Kapiteni	-8779
▁Kayitesi	-8780
▁Komisiyo	-8781
▁Kugarura	-8782
▁Ludovico	-8783
▁MASSAMBA	-8784
▁MBYEMEZE	-8785
▁MINISITE	-8786
▁MURAKOZE	-8787
▁Minisite	-8788
▁Muryango	-8789
▁NAHEREYE	-8790
▁NAKOMEZA	-8791
▁NAREBAGA	-8792
▁NIYIBAGI	-8793
▁NTAMBARA	-8794
▁NTIBYAGA	-8795
▁NTIRWIKO	-8796
▁NYANDIKO	-8797
▁POLITIKI	-8798
▁RIFASHWA	-8799
MING	-8800
NINI	-8801
UMVI	-8802
VIRU	-8803
VITA	-8804
▁DAT	-8805
▁tat	-8806
RMING	-8807
Umuco	-8808
VIRUS	-8809
yenda	-8810
▁DATA	-8811
▁MBWI	-8812
▁mbwi	-8813
BOGAMI	-8814
BONERA	-8815
INZEGO	-8816
MWENDA	-8817
▁ABONE	-8818
▁MAINA	-8819
▁YANEN	-8820
▁YUMVI	-8821
▁agaca	-8822
▁ibara	-8823
▁ikini	-8824
TUMENYE	-8825
mbagiza	-8826
nyezamu	-8827
▁ABYAYE	-8828
▁KAVITA	-8829
▁NABAYE	-8830
▁Ngenzu	-8831
▁RUNINI	-8832
▁YANGAN	-8833
▁tattoo	-8834
BOGAMIZI	-8835
RMINGHAM	-8836
rikiramo	-8837
shingamu	-8838
umurayon	-8839
▁AKOMEYE	-8840
▁Amateka	-8841
▁BIRIRWA	-8842
▁MASHINI	-8843
▁MBWIRWA	-8844
▁RYABAYE	-8845
▁WAMENYE	-8846
▁WASHYIN	-8847
▁WILLIAM	-8848
▁YANENZE	-8849
▁ZINGANA	-8850
▁ahamaze	-8851
▁birirwa	-8852
▁ikiniga	-8853
▁imyenda	-8854
▁mbwirwa	-8855
FORMATION	-8856
HAMAGAJWE	-8857
IMISHINGA	-8858
MBIBONERA	-8859
RONAVIRUS	-8860
SHAMWENDA	-8861
tambagiza	-8862
ubutumire	-8863
▁IGEZWEHO	-8864
▁KWITANDU	-8865
▁MISHINGA	-8866
▁RIKOMEYE	-8867
▁RIZATUMA	-8868
▁RUDAFITE	-8869
▁RUKOMEJE	-8870
▁RWATANZE	-8871
▁SOFTBANK	-8872
▁Shaddybo	-8873
▁THEOGENE	-8874
▁TOULOUSE	-8875
▁TURIFUZA	-8876
▁Triompal	-8877
▁UBURYOHE	-8878
▁UDAKWIYE	-8879
▁UGAKANDA	-8880
▁UGEZWEHO	-8881
▁UGUKUNDA	-8882
▁URUTONDE	-8883
▁UWAHUNZE	-8884
▁Uwahunze	-8885
▁WABAHUJE	-8886
▁WABEREYE	-8887
▁WAMAMAYE	-8888
▁WAMUBAYE	-8889
▁WANKUNZE	-8890
▁WANTUMYE	-8891
▁WATEGUWE	-8892
▁WAYOBOYE	-8893
▁WEREKEJE	-8894
▁YABAHAYE	-8895
▁YABITEWE	-8896
▁YADUHAYE	-8897
▁YAGENEWE	-8898
▁YAKINAGA	-8899
SPA	-8900
nnye	-8901
pula	-8902
suka	-8903
▁IPA	-8904
BUMBE	-8905
ILIME	-8906
ROMBE	-8907
SPARD	-8908
bumbe	-8909
▁Boni	-8910
▁MAPU	-8911
▁ntir	-8912
bition	-8913
karere	-8914
lavier	-8915
mbutse	-8916
tarayi	-8917
yeguye	-8918
▁Abaye	-8919
▁IRERE	-8920
▁Light	-8921
▁Prota	-8922
▁TWAKU	-8923
▁bwabo	-8924
▁bwazo	-8925
▁irere	-8926
▁ntibe	-8927
▁ntitu	-8928
▁ntizi	-8929
▁ukuta	-8930
▁ukuzi	-8931
TUNGUYE	-8932
UHORAHO	-8933
ZAMUTSE	-8934
akarere	-8935
tunguye	-8936
▁BATARA	-8937
▁BATAZI	-8938
▁FILIME	-8939
▁IRAMBO	-8940
▁MAPULA	-8941
▁Mapula	-8942
▁NTITWA	-8943
▁bazibu	-8944
▁bibaye	-8945
▁gusuka	-8946
▁nabaye	-8947
▁naguye	-8948
▁ntirwi	-8949
hibition	-8950
tambutse	-8951
tarayima	-8952
▁AMAZEZE	-8953
▁GASPARD	-8954
▁GEORGES	-8955
▁IMBUMBE	-8956
▁KIROMBE	-8957
▁Protais	-8958
▁TWAGIYE	-8959
▁TWAKUZE	-8960
▁Yahimwe	-8961
▁afungwa	-8962
▁bwamaze	-8963
▁byabaye	-8964
▁clavier	-8965
▁cyabaye	-8966
▁hanyuma	-8967
▁imbumbe	-8968
▁ntizite	-8969
▁ryabaye	-8970
▁ukutawu	-8971
▁ukuzica	-8972
▁wamenye	-8973
ABAKINNYI	-8974
ZAMUTSEHO	-8975
abakinnyi	-8976
xhibition	-8977
▁BATARAYI	-8978
▁BIRAGOYE	-8979
▁Bonifash	-8980
▁IPARITSE	-8981
▁IRAMBONA	-8982
▁TWASHAKA	-8983
▁YAKOMEZA	-8984
▁YAKORAGA	-8985
▁YAKUYEMO	-8986
▁YANAGEZE	-8987
▁YANDITSE	-8988
▁YATEGUYE	-8989
▁YATOREWE	-8990
▁YAYOBOWE	-8991
▁YAZAMUYE	-8992
▁YEREKEYE	-8993
▁YIMUKIYE	-8994
▁ZABYAZWA	-8995
▁ZIBYAZWE	-8996
▁ZIGAMIJE	-8997
▁ZIHAGAZE	-8998
▁ZIRINDWI	-8999
LORI	-9000
PILO	-9001
navi	-9002
▁Ejo	-9003
HARIE	-9004
IJORO	-9005
URURI	-9006
URUZA	-9007
▁HILA	-9008
▁MALO	-9009
BUKIRA	-9010
CHARIE	-9011
HARIWE	-9012
LORIDA	-9013
PILOTE	-9014
Umuntu	-9015
hariwe	-9016
hatana	-9017
naviru	-9018
ssamba	-9019
▁BWABO	-9020
▁BWAJE	-9021
▁BWATU	-9022
▁HILAL	-9023
▁NKABA	-9024
▁NKATA	-9025
▁NTIBA	-9026
▁NTIBI	-9027
▁NTIDU	-9028
▁SINGO	-9029
▁UHARI	-9030
▁ahari	-9031
▁ihari	-9032
▁nkaba	-9033
▁nkata	-9034
▁uhari	-9035
ABAHARI	-9036
URURIMI	-9037
navirus	-9038
▁BAKABU	-9039
▁BAKAZA	-9040
▁BAKAZI	-9041
▁BIKIRA	-9042
▁IRINDI	-9043
▁RIMAZE	-9044
▁bakazi	-9045
▁ingabo	-9046
▁rimaze	-9047
▁yiyuba	-9048
IKIMENYA	-9049
KURIKIYE	-9050
RANYIJWE	-9051
amashuri	-9052
▁BAHINZI	-9053
▁FLORIDA	-9054
▁ICURUZA	-9055
▁MALOTTE	-9056
▁NKATAKA	-9057
▁NTIBIVE	-9058
▁RYAMAZE	-9059
▁YASINYI	-9060
▁nkataka	-9061
BYAHARIWE	-9062
byahariwe	-9063
yikoresha	-9064
▁AKORESHA	-9065
▁BAKAZAYI	-9066
▁BAZANIWE	-9067
▁BUGAMIJE	-9068
▁INGURANE	-9069
▁Massamba	-9070
▁NTIBAMWE	-9071
▁SINGOMBA	-9072
▁ZACHARIE	-9073
▁ZISIGAYE	-9074
▁ababyeyi	-9075
▁abikesha	-9076
▁abyemeza	-9077
▁abyicuza	-9078
▁acyangwa	-9079
▁aganisha	-9080
▁agitorwa	-9081
▁ampagaze	-9082
▁amusanga	-9083
▁aririmba	-9084
▁ashinzwe	-9085
▁atandatu	-9086
▁aturutse	-9087
▁ayikunda	-9088
▁azongera	-9089
▁babifite	-9090
▁badakora	-9091
▁badatewe	-9092
▁bahembwa	-9093
▁bakakigu	-9094
▁bakorera	-9095
▁bakorewe	-9096
▁bakuriye	-9097
▁baragize	-9098
▁basanzwe	-9099
MANU	-9100
mman	-9101
▁DAW	-9102
CAMAN	-9103
FATWA	-9104
KEMAN	-9105
REZWA	-9106
RITWA	-9107
SINDI	-9108
TWAZA	-9109
manza	-9110
▁DAWN	-9111
▁fili	-9112
▁teri	-9113
INDIMI	-9114
MUHUZA	-9115
RUKANA	-9116
▁BINDI	-9117
▁Emman	-9118
▁GUKWA	-9119
▁YINDI	-9120
▁ikaku	-9121
▁wumva	-9122
BYEMERA	-9123
CAMANZA	-9124
HARIRWA	-9125
KEMANGA	-9126
MANUTSE	-9127
RITWARI	-9128
camanza	-9129
rangaza	-9130
▁ATABWA	-9131
▁ATAJYA	-9132
▁IKAMBA	-9133
▁TUKANA	-9134
▁atajya	-9135
▁filime	-9136
▁giciro	-9137
▁mpunze	-9138
▁ubwoba	-9139
DUTSINDA	-9140
SIGARANA	-9141
SINDISHA	-9142
kanabaha	-9143
▁AGASABA	-9144
▁ATARAGA	-9145
▁GITWAZA	-9146
▁GUFATWA	-9147
▁KIRANGA	-9148
▁KWIHARI	-9149
▁Million	-9150
▁YATANGI	-9151
▁ZIRANGA	-9152
▁ataraga	-9153
▁biranga	-9154
▁kingana	-9155
▁teritwa	-9156
▁twateye	-9157
▁yatangi	-9158
▁ziranga	-9159
bwugarizi	-9160
▁BAMUHUZA	-9161
▁Emmanuel	-9162
▁Nabamban	-9163
▁WAVUKIYE	-9164
▁bashinja	-9165
▁basigaje	-9166
▁basobanu	-9167
▁batagera	-9168
▁baturage	-9169
▁bawutuye	-9170
▁bazaniwe	-9171
▁bihuriye	-9172
▁bikavamo	-9173
▁bisanzwe	-9174
▁bugamije	-9175
▁bukomeza	-9176
▁bukorano	-9177
▁buzabera	-9178
▁byagaban	-9179
▁byanyuze	-9180
▁byishimo	-9181
▁byumweru	-9182
▁cyigenda	-9183
▁cyinjije	-9184
▁dukomeje	-9185
▁giteguza	-9186
▁guhamaga	-9187
▁guhembwa	-9188
▁guhitamo	-9189
▁gukemura	-9190
▁gukuraho	-9191
▁gusabana	-9192
▁gusobanu	-9193
▁habayeho	-9194
▁hadaciye	-9195
▁hakenewe	-9196
▁hazabaho	-9197
▁ibyihebe	-9198
▁icyorezo	-9199
ILLA	-9200
QUES	-9201
ciri	-9202
sasu	-9203
▁NEW	-9204
▁QUE	-9205
▁TAT	-9206
BYIGA	-9207
ROBYI	-9208
ZABYA	-9209
byiga	-9210
byivu	-9211
isoko	-9212
rujyi	-9213
rundi	-9214
rwana	-9215
▁Biha	-9216
▁Busu	-9217
▁Gast	-9218
▁Habi	-9219
▁Hara	-9220
▁Hari	-9221
▁NEWS	-9222
▁Undi	-9223
ILLAGE	-9224
byazwa	-9225
sasuro	-9226
shakaa	-9227
▁AZABA	-9228
▁BUNDI	-9229
▁BUNTU	-9230
▁Izaba	-9231
▁KUBYI	-9232
▁KWACU	-9233
▁QUEEN	-9234
▁YABYA	-9235
▁azaba	-9236
▁bundi	-9237
▁buntu	-9238
▁zinyu	-9239
byaraga	-9240
cyakoze	-9241
▁BUTEGE	-9242
▁BUZABA	-9243
▁Bizima	-9244
▁Busuwi	-9245
▁GICIRO	-9246
▁Gaston	-9247
▁Habiya	-9248
▁KIRUTA	-9249
▁KIZABA	-9250
▁TATTOO	-9251
▁UBUNTU	-9252
▁UMUNSI	-9253
▁Ubundi	-9254
▁YIBUKA	-9255
▁bariya	-9256
▁buciri	-9257
▁maboko	-9258
▁nyungu	-9259
▁ubuntu	-9260
▁ugomba	-9261
▁umunsi	-9262
▁yigeze	-9263
UBUROBYI	-9264
bikemura	-9265
bikoraho	-9266
rebereye	-9267
rujyibwa	-9268
urukundo	-9269
zandengo	-9270
▁AKAZABA	-9271
▁IGICIRO	-9272
▁JACQUES	-9273
▁KUBYIVU	-9274
▁VILLAGE	-9275
▁akazaba	-9276
▁burundi	-9277
▁gihindu	-9278
▁kubyivu	-9279
▁kurwana	-9280
ZABYARIRA	-9281
▁Bihambwe	-9282
▁Busuwisi	-9283
▁Harabura	-9284
▁Icyakoze	-9285
▁YERURIRA	-9286
▁amashuri	-9287
▁igenzura	-9288
▁igezweho	-9289
▁ikurwamo	-9290
▁ikwiriye	-9291
▁imyitegu	-9292
▁inatwara	-9293
▁ipantalo	-9294
▁irengero	-9295
▁itangira	-9296
▁izirenga	-9297
▁kakagera	-9298
▁kubabaza	-9299
▁On	-9300
RARD	-9301
bica	-9302
illa	-9303
▁OLI	-9304
▁OWE	-9305
▁Rut	-9306
▁SER	-9307
▁app	-9308
ABARW	-9309
Imana	-9310
RWANA	-9311
nyica	-9312
ururi	-9313
ÉRARD	-9314
▁CAMP	-9315
▁Jose	-9316
▁NENE	-9317
▁OWEN	-9318
▁Rure	-9319
▁Ruzi	-9320
RABONA	-9321
RIZAMO	-9322
ZAFATI	-9323
bitiwe	-9324
bonaga	-9325
illage	-9326
intsin	-9327
kibona	-9328
wabica	-9329
▁BUREN	-9330
▁Josel	-9331
▁Maina	-9332
▁Ngoga	-9333
▁RWARI	-9334
▁SERGE	-9335
▁icuru	-9336
▁imite	-9337
gendewe	-9338
ururimi	-9339
▁ARAMWI	-9340
▁GÉRARD	-9341
▁Josely	-9342
▁NABONA	-9343
▁RUBONA	-9344
▁RWAFUN	-9345
▁Rurema	-9346
▁Rutshu	-9347
▁Ruziga	-9348
▁Sinabi	-9349
▁UBWOBA	-9350
▁YAGARU	-9351
▁ZAGURI	-9352
▁babona	-9353
▁bikaba	-9354
▁rubona	-9355
▁yahuye	-9356
GIRIZAMO	-9357
HAMAGAWE	-9358
intsinzi	-9359
koranabu	-9360
▁HANYUMA	-9361
▁INDWARA	-9362
▁KURWANA	-9363
▁Ndahiro	-9364
▁OLIVIER	-9365
▁URABONA	-9366
▁Village	-9367
▁icuruza	-9368
▁kunyica	-9369
▁yigisha	-9370
RANABUNGA	-9371
ZAFATIRWA	-9372
▁GUSHINGA	-9373
▁ITURUTSE	-9374
▁Joselyne	-9375
▁NABONAGA	-9376
▁RWAFUNZE	-9377
▁Rutshuru	-9378
▁Sinabiha	-9379
▁YAGARUYE	-9380
▁YAGIYEHO	-9381
▁atorerwa	-9382
▁kuboneka	-9383
▁kudatara	-9384
▁kumutera	-9385
▁kurebera	-9386
▁kureshya	-9387
▁kutabona	-9388
▁kutagera	-9389
▁kuyiseze	-9390
▁kwambura	-9391
▁kwerekan	-9392
▁kwinjiza	-9393
▁kwitandu	-9394
▁mishinga	-9395
▁mpimbano	-9396
▁mukeneye	-9397
▁murakoze	-9398
▁mutekano	-9399
Mama	-9400
SURO	-9401
BUNYI	-9402
MENYI	-9403
NYICA	-9404
bunyi	-9405
funze	-9406
herwe	-9407
rweho	-9408
sheho	-9409
vumbi	-9410
▁Iryo	-9411
▁shya	-9412
GURIYE	-9413
INTSIN	-9414
KANAMO	-9415
KARASI	-9416
SASURO	-9417
TEGURI	-9418
YEGUYE	-9419
hashya	-9420
shyaru	-9421
yahura	-9422
▁ABIRI	-9423
▁AHITA	-9424
▁ASHYA	-9425
▁abiri	-9426
▁munya	-9427
▁ntidu	-9428
GURUTSE	-9429
RUKANYE	-9430
TYEGUYE	-9431
amakuru	-9432
▁BUSHYA	-9433
▁MISHYA	-9434
▁MUBIRI	-9435
▁MUSHYA	-9436
▁YAGOWE	-9437
▁bigeze	-9438
▁bubiri	-9439
▁ivumbi	-9440
▁mishya	-9441
▁mubiri	-9442
DUTEGURI	-9443
INTSINZI	-9444
MABABAJE	-9445
MOKARASI	-9446
UMUHUNGU	-9447
umuherwe	-9448
▁Amafoto	-9449
▁BIBYARA	-9450
▁GIKORWA	-9451
▁KEEPLER	-9452
▁KUNYICA	-9453
▁MUBUNYI	-9454
▁Mubunyi	-9455
▁NAMENYE	-9456
▁SENTORE	-9457
▁ihuriro	-9458
SERUKANYE	-9459
▁GERAGEZA	-9460
▁LUDOVICO	-9461
▁UBUMENYI	-9462
▁byakorwa	-9463
▁guhashya	-9464
▁igikorwa	-9465
▁irusheho	-9466
▁nakomeza	-9467
▁narebaga	-9468
▁nirimara	-9469
▁ntambara	-9470
▁ntirwiko	-9471
▁nzarinda	-9472
▁rifashwa	-9473
▁rigacika	-9474
▁rikomeye	-9475
▁rizatuma	-9476
▁rudafite	-9477
▁rukomeje	-9478
▁rupapuro	-9479
▁rwafunze	-9480
▁ryatanze	-9481
▁shyashya	-9482
▁singomba	-9483
▁sosiyete	-9484
▁tekinike	-9485
▁tudafite	-9486
▁twaremye	-9487
▁twirenga	-9488
▁ubufasha	-9489
▁udukunda	-9490
▁ugukunda	-9491
▁umubitsi	-9492
▁umugisha	-9493
▁umuhango	-9494
▁umuhungu	-9495
▁umujinya	-9496
▁uruganda	-9497
▁urutonde	-9498
▁wabahuje	-9499
xel	-9500
FUNI	-9501
TSHU	-9502
heur	-9503
ixel	-9504
▁MPI	-9505
SOBWA	-9506
bwaho	-9507
cyaka	-9508
jyamo	-9509
▁ARAM	-9510
▁Maku	-9511
▁Mali	-9512
▁Masi	-9513
▁ZONE	-9514
FUBIKA	-9515
SIFUNI	-9516
TSHURU	-9517
ZANDEN	-9518
hereza	-9519
ngerwa	-9520
onheur	-9521
rekire	-9522
twatsi	-9523
▁ARABI	-9524
▁AVUZE	-9525
▁BYERA	-9526
▁Pixel	-9527
▁Stars	-9528
▁agato	-9529
▁ryari	-9530
▁tujya	-9531
▁zajya	-9532
AMAKURU	-9533
DASOBWA	-9534
YESHURI	-9535
gendaga	-9536
mbibone	-9537
tabwaho	-9538
zahemba	-9539
▁AHABWA	-9540
▁ARABIA	-9541
▁BININI	-9542
▁KENSHI	-9543
▁Makuza	-9544
▁Masisi	-9545
▁RUBAVU	-9546
▁URUBWA	-9547
▁bakaza	-9548
UBUKUNGU	-9549
ZANDENGO	-9550
gukanywe	-9551
kongerwa	-9552
raharari	-9553
ubukungu	-9554
▁ABYAZWE	-9555
▁BWIHUSE	-9556
▁Bonheur	-9557
▁CONSENT	-9558
▁MPIMBAN	-9559
▁MSIFUNI	-9560
▁UMUPAKA	-9561
▁WINJIYE	-9562
▁ricyaka	-9563
▁utwatsi	-9564
kurikiran	-9565
mbibonera	-9566
titabwaho	-9567
▁BYASABYE	-9568
▁GIKOMEJE	-9569
▁Kayisire	-9570
▁MPIMBANO	-9571
▁NDASHAJE	-9572
▁RUTSHURU	-9573
▁SINABIHA	-9574
▁agatotsi	-9575
▁bakazayi	-9576
▁kirekire	-9577
▁kohereza	-9578
▁ubukungu	-9579
▁wabereye	-9580
▁wakuriki	-9581
▁wamamaye	-9582
▁wamubaye	-9583
▁wankunze	-9584
▁warakoze	-9585
▁wateguwe	-9586
▁yabahaye	-9587
▁yabitewe	-9588
▁yaduhaye	-9589
▁yafatiye	-9590
▁yagaruye	-9591
▁yagenewe	-9592
▁yahamaga	-9593
▁yahereye	-9594
▁yahiriwe	-9595
▁yakennye	-9596
▁yakinaga	-9597
▁yakomeza	-9598
▁yakoraga	-9599
BICA	-9600
UMVE	-9601
UMYE	-9602
PUMYE	-9603
Uruho	-9604
ruzwa	-9605
▁Dimi	-9606
▁GUSU	-9607
▁Kuko	-9608
▁kari	-9609
▁kaza	-9610
▁zahi	-9611
HEMBWE	-9612
KIRIRA	-9613
Uruhon	-9614
WABICA	-9615
bivuga	-9616
gumura	-9617
hembwe	-9618
koramo	-9619
mukome	-9620
umwana	-9621
ziriza	-9622
▁Avuga	-9623
▁BAJYE	-9624
▁Dimit	-9625
▁IRAHO	-9626
▁NUMVE	-9627
▁TUJYA	-9628
▁UVUGA	-9629
▁bandi	-9630
▁indan	-9631
▁ivuga	-9632
▁nkora	-9633
▁uruto	-9634
▁uvuga	-9635
YIFASHA	-9636
▁ATINDA	-9637
▁BUMAZE	-9638
▁GUSUKA	-9639
▁Kugira	-9640
▁MPUMYE	-9641
▁NINJYA	-9642
▁NYACYO	-9643
▁POLISI	-9644
▁Polisi	-9645
▁bavuga	-9646
▁gikora	-9647
▁kagera	-9648
▁rivuga	-9649
▁ryungu	-9650
▁zikora	-9651
BIKORAHO	-9652
SHINGAMU	-9653
hashyira	-9654
▁ASHYIRA	-9655
▁Dimitri	-9656
▁GUHATAN	-9657
▁IRAHOZA	-9658
▁WAFASHE	-9659
▁aboneka	-9660
▁ashyira	-9661
▁igikome	-9662
▁ubivuga	-9663
▁uhagaze	-9664
▁urutoki	-9665
▁yamenye	-9666
Allelluia	-9667
banziriza	-9668
▁AKEKWAHO	-9669
▁BURAHARA	-9670
▁GISHYIRA	-9671
▁GUHATANA	-9672
▁YAHEMBWE	-9673
▁banditse	-9674
▁bigumura	-9675
▁kazagera	-9676
▁kijyanye	-9677
▁rukoramo	-9678
▁ryunguka	-9679
▁twashoye	-9680
▁yahembwe	-9681
▁yakoreye	-9682
▁yanditse	-9683
▁yaramanu	-9684
▁yarigaru	-9685
▁yashyize	-9686
▁yatorewe	-9687
▁yatsinze	-9688
▁yayahaga	-9689
▁yayobowe	-9690
▁yazamuye	-9691
▁yerekeye	-9692
▁yibukije	-9693
▁yugariye	-9694
▁zabyazwa	-9695
▁zahimbwe	-9696
▁zihagaze	-9697
▁zikenewe	-9698
▁zisigaye	-9699
▁Kit	-9700
▁icu	-9701
▁maj	-9702
▁num	-9703
JYAMO	-9704
UGENE	-9705
hunga	-9706
jyewe	-9707
toria	-9708
▁BODI	-9709
▁CYRI	-9710
▁Gala	-9711
▁Kimi	-9712
▁Kizi	-9713
▁PORO	-9714
▁mabi	-9715
▁rire	-9716
BIVUGA	-9717
GEREYE	-9718
KIRANA	-9719
KORANA	-9720
MARANA	-9721
RANAJE	-9722
burana	-9723
gamizi	-9724
ranaho	-9725
▁ARAYI	-9726
▁BYUMA	-9727
▁CYRIL	-9728
▁FRANÇ	-9729
▁Galax	-9730
▁IMPIN	-9731
▁IVUGA	-9732
▁IZAMU	-9733
▁KURYA	-9734
▁KWING	-9735
▁Kithu	-9736
▁byuma	-9737
▁icura	-9738
▁kwihe	-9739
▁kwite	-9740
▁majwi	-9741
▁numve	-9742
▁rujye	-9743
SHOBOYE	-9744
hugurwa	-9745
hungaga	-9746
mashini	-9747
retoria	-9748
umugabo	-9749
▁BASAHU	-9750
▁BODIBE	-9751
▁EUGENE	-9752
▁FRANÇO	-9753
▁Galaxy	-9754
▁ISHIRA	-9755
▁KANYAN	-9756
▁Kizito	-9757
▁Njyewe	-9758
▁Nshobo	-9759
▁RIVUGA	-9760
▁akanga	-9761
▁isabye	-9762
bahamaga	-9763
bogamizi	-9764
▁AMAHUGU	-9765
▁ATABAZA	-9766
▁BYAGEZE	-9767
▁FRANÇOI	-9768
▁IGIKOME	-9769
▁IMPINDU	-9770
▁Kithure	-9771
▁UBIVUGA	-9772
▁UGUHUZA	-9773
▁WANYUZE	-9774
▁YINJIYE	-9775
▁icurabu	-9776
▁kwiheba	-9777
▁mpeshyi	-9778
YONGEREYE	-9779
▁ABASHAKA	-9780
▁BASAHUYE	-9781
▁GUKORANA	-9782
▁KUBIVUGA	-9783
▁Pretoria	-9784
▁UBUSHAKA	-9785
▁WARANAJE	-9786
▁YAKOREYE	-9787
▁imashini	-9788
▁imuritse	-9789
▁rirerire	-9790
ABAKEMANGA	-9791
AMAFARANGA	-9792
BAGARAGAJE	-9793
BAKURIKIRA	-9794
GABANYUTSE	-9795
GARAGARIRA	-9796
GARAGARIZE	-9797
GARAGAZAGA	-9798
GENZACYAHA	-9799
paga	-9800
umye	-9801
▁ALP	-9802
▁TEX	-9803
HERWE	-9804
INIRO	-9805
MWAKA	-9806
ababa	-9807
abake	-9808
iniro	-9809
pumye	-9810
▁ANGO	-9811
▁TETA	-9812
▁kaba	-9813
ANGIZE	-9814
KICUZA	-9815
YINIRO	-9816
mwenda	-9817
pagara	-9818
rikamu	-9819
ufashe	-9820
yiniro	-9821
▁ALPHA	-9822
▁Ingen	-9823
▁Kindi	-9824
▁TEXAS	-9825
▁bitwa	-9826
▁bwana	-9827
▁bwoko	-9828
▁kindi	-9829
▁ndeba	-9830
BYINIRO	-9831
abafite	-9832
byemeze	-9833
byiniro	-9834
indisha	-9835
shoyemo	-9836
▁ANGOLA	-9837
▁ATANGE	-9838
▁BIBIRI	-9839
▁Israël	-9840
▁KIGIZE	-9841
▁WAGIZE	-9842
▁WARAYE	-9843
▁YAHIRI	-9844
▁kigize	-9845
▁kizaba	-9846
▁mpumye	-9847
▁rikamu	-9848
▁wagize	-9849
▁zigize	-9850
HINDURWE	-9851
UMUHERWE	-9852
abakeman	-9853
pagarara	-9854
sindisha	-9855
▁ABAGIZE	-9856
▁ALPHABE	-9857
▁CYAGIZE	-9858
▁Kindiki	-9859
▁Murenge	-9860
▁NKICUZA	-9861
▁abagize	-9862
▁irushwa	-9863
YOBORWAMO	-9864
▁ALPHABET	-9865
▁Abdallah	-9866
▁IMPAPURO	-9867
▁YAHIRIWE	-9868
▁bayigiye	-9869
▁bikorera	-9870
▁kabahaye	-9871
▁mbyemeze	-9872
▁yakomeje	-9873
HAMAGARIRA	-9874
HINDURWEHO	-9875
IBYOGAJURU	-9876
IGABANYUKA	-9877
IMIKORESHE	-9878
ISHORAMARI	-9879
IVANGURAMO	-9880
KURIKIYEHO	-9881
MUKOMEREYE	-9882
MUSHENGURA	-9883
MWINJIRIZA	-9884
MWUNGIRIJE	-9885
TORANYIJWE	-9886
TWONGERERE	-9887
Twongerere	-9888
UBUCUNGURE	-9889
UBUFATANYA	-9890
UMUSHAHARA	-9891
URUHONGORE	-9892
YAHAGARIKI	-9893
YEREKEYEHO	-9894
YISHYIZEMO	-9895
ZASHYIRAMO	-9896
ZIRAVUMERA	-9897
abakemanga	-9898
amafaranga	-9899
IGH	-9900
ala	-9901
ila	-9902
▁la	-9903
DORE	-9904
FAST	-9905
Mala	-9906
RIST	-9907
dmen	-9908
ilal	-9909
lati	-9910
▁Han	-9911
ABARU	-9912
IGHTS	-9913
IMANA	-9914
Malai	-9915
dment	-9916
▁Amen	-9917
▁GAST	-9918
HIMBWE	-9919
ONIQUE	-9920
galati	-9921
▁Hande	-9922
▁Hilal	-9923
▁Sport	-9924
▁ahora	-9925
HANGANA	-9926
MASHINI	-9927
Malaika	-9928
Uhoraho	-9929
bakunze	-9930
▁CHRIST	-9931
▁GASTON	-9932
▁Handel	-9933
▁IBYATE	-9934
▁MAKIPE	-9935
▁WARAJE	-9936
▁bahora	-9937
▁twebwe	-9938
ABAHINZI	-9939
GERAZUBA	-9940
galatiya	-9941
garagamb	-9942
timetero	-9943
▁HEIGHTS	-9944
▁KUBANZA	-9945
▁MONIQUE	-9946
▁TWATEYE	-9947
▁kubanza	-9948
▁ubufana	-9949
▁uheruka	-9950
▁yibanze	-9951
ABARUTUYE	-9952
UBUTABERA	-9953
UBUYOBOZI	-9954
ubuyobozi	-9955
▁BIGARAGA	-9956
▁IBYATEJE	-9957
▁IMASHINI	-9958
▁Ildephon	-9959
▁URUGANDA	-9960
▁Umubyeyi	-9961
▁YAGARAGA	-9962
▁ZAHIMBWE	-9963
▁baheruka	-9964
▁batsinze	-9965
▁bugaraga	-9966
▁yagaraga	-9967
GARAGARAGA	-9968
MBASSADORS	-9969
aniyandika	-9970
bahamagaje	-9971
bancancuro	-9972
fashishije	-9973
garagambyo	-9974
garagazaga	-9975
gurishijwe	-9976
ibyahariwe	-9977
ibyogajuru	-9978
igabanyuka	-9979
ikimenyabo	-9980
injirizaho	-9981
ishoramari	-9982
kurikiraho	-9983
kwirakwira	-9984
mukomereye	-9985
mushengura	-9986
ragerageje	-9987
rujyibwami	-9988
shingiyeho	-9989
sobanurira	-9990
tagaragara	-9991
toranyijwe	-9992
toranywamo	-9993
ubufatanya	-9994
ubwugarizi	-9995
umucamanza	-9996
umwamikazi	-9997
urubyiruko	-9998
wanyumvise	-9999
lou	-10000
tine	-10001
▁ICU	-10002
▁Tou	-10003
▁mic	-10004
MBOGA	-10005
NYARU	-10006
louse	-10007
rindi	-10008
sobwa	-10009
wanzu	-10010
▁ICYU	-10011
▁IZIS	-10012
▁LAWS	-10013
▁yine	-10014
▁ziki	-10015
▁zite	-10016
BARIMO	-10017
HIRIZA	-10018
IMBOGA	-10019
KIRIMO	-10020
MARIYA	-10021
MBITSE	-10022
RANGWA	-10023
barimo	-10024
livier	-10025
rikiye	-10026
▁IGICE	-10027
▁IGISE	-10028
▁Media	-10029
▁NDEBA	-10030
▁PRIMO	-10031
▁Primo	-10032
▁miban	-10033
▁micye	-10034
▁ndimi	-10035
▁ntibi	-10036
dasobwa	-10037
shyimbo	-10038
wanzuro	-10039
▁ICYUYA	-10040
▁IZISYA	-10041
▁KIRIMO	-10042
▁Kumara	-10043
▁bitatu	-10044
▁cyanya	-10045
▁kirimo	-10046
▁mibani	-10047
ragabanu	-10048
▁CYANGWE	-10049
▁IGISEBO	-10050
▁KUBAGWA	-10051
▁KWEGURA	-10052
▁Olivier	-10053
▁bafungu	-10054
▁cyinshi	-10055
▁mashuri	-10056
▁ntibive	-10057
▁yatumye	-10058
▁ziterwa	-10059
NYARUGURU	-10060
▁ATURUTSE	-10061
▁IBYICIRO	-10062
▁KARANGWA	-10063
▁Toulouse	-10064
▁YAMBITSE	-10065
▁ZIKIRIMO	-10066
▁mibanire	-10067
▁mwanzuro	-10068
▁yabereye	-10069
▁zikirimo	-10070
yerekeyeho	-10071
yirankende	-10072
zagaragara	-10073
▁ABABUKORA	-10074
▁ABAKRISTU	-10075
▁ABIKORERA	-10076
▁ADAHUMEKA	-10077
▁AGARAGAZA	-10078
▁AHANGANYE	-10079
▁AMENDMENT	-10080
▁ARAMBWIRA	-10081
▁ATAKINIYE	-10082
▁ATAKIRIHO	-10083
▁ATARAGARU	-10084
▁ATEGETSWE	-10085
▁AZAMURIKI	-10086
▁Abakristu	-10087
▁Amendment	-10088
▁BAGAHABWA	-10089
▁BAKAMWITA	-10090
▁BAKEKWAHO	-10091
▁BAKORANYE	-10092
▁BATANGAGA	-10093
▁BATANGIRA	-10094
▁BATANGIRE	-10095
▁BATANGIZA	-10096
▁BATIKANGA	-10097
▁BAYIFASHA	-10098
▁BAYIFASHE	-10099
OVE	-10100
▁Za	-10101
GALA	-10102
MALA	-10103
ZUBU	-10104
ZUZA	-10105
namo	-10106
runa	-10107
zubu	-10108
▁AMB	-10109
▁Amb	-10110
▁Zac	-10111
MALAI	-10112
enter	-10113
isaha	-10114
▁GALA	-10115
▁GIVE	-10116
▁Imfa	-10117
▁LOVE	-10118
▁Nice	-10119
▁RIRE	-10120
▁RIYA	-10121
▁ZIJE	-10122
▁ZITE	-10123
▁akam	-10124
▁ntak	-10125
GALATI	-10126
IGISIN	-10127
UBUMWE	-10128
ZUBUKU	-10129
harira	-10130
liyoni	-10131
namoor	-10132
zubuku	-10133
▁GALAX	-10134
▁IBONE	-10135
▁Ngabo	-10136
▁RIYAD	-10137
▁RYUBA	-10138
▁URUMU	-10139
▁URUTO	-10140
▁UYIHA	-10141
▁YANZE	-10142
▁kwiru	-10143
MALAIKA	-10144
namoort	-10145
tubwiye	-10146
▁ANGANA	-10147
▁BABANA	-10148
▁Center	-10149
▁GALAXY	-10150
▁Haruna	-10151
▁INTEKO	-10152
▁Imfabu	-10153
▁KUBAHO	-10154
▁KUBAKI	-10155
▁KUVUZA	-10156
▁KUZUZA	-10157
▁RIYADH	-10158
▁ZIGIRA	-10159
▁akampe	-10160
▁atabwa	-10161
▁mikino	-10162
▁ukwiha	-10163
GALATIYA	-10164
HEREREZI	-10165
IGISINGI	-10166
Urukundo	-10167
miliyoni	-10168
musaruro	-10169
▁ABAGORE	-10170
▁ABATOZA	-10171
▁CYINSHI	-10172
▁IBONEKE	-10173
▁UHEREYE	-10174
▁UHERUKA	-10175
▁URUMURI	-10176
▁URUTOKI	-10177
▁ZIJEJWE	-10178
▁ZITERWA	-10179
▁Zachari	-10180
▁ntakwan	-10181
ZUBUKURWA	-10182
namoorthi	-10183
zubukurwa	-10184
▁Abakunzi	-10185
▁BYAHANWA	-10186
▁IGIKORWA	-10187
▁Imfabusa	-10188
▁KUBAKIKA	-10189
▁RIRERIRE	-10190
▁Zacharie	-10191
▁ukwihaza	-10192
IGISINGIZO	-10193
TORANYWAMO	-10194
▁ABADEPITE	-10195
▁BAYIFASHI	-10196
▁BAZAHABWA	-10197
▁BIBARANGA	-10198
▁BIBARIRWA	-10199
CAHO	-10200
SUWI	-10201
▁Dat	-10202
BWAMI	-10203
IJURU	-10204
umuka	-10205
umutu	-10206
▁KWIC	-10207
▁ibye	-10208
▁yish	-10209
▁yize	-10210
KORAMO	-10211
KOREWE	-10212
LIYONI	-10213
SUWISI	-10214
ZICAHO	-10215
rangwa	-10216
▁IKORA	-10217
▁IKURA	-10218
▁KWIZE	-10219
▁NKORA	-10220
▁UKABA	-10221
▁ashya	-10222
▁byago	-10223
▁igice	-10224
ITERERE	-10225
YASINYA	-10226
intanga	-10227
tangazo	-10228
umukara	-10229
umutuku	-10230
▁HASHIN	-10231
▁JEANNE	-10232
▁KWIBAN	-10233
▁KWICWA	-10234
▁WAVUGA	-10235
▁YAKORE	-10236
▁ZISHYA	-10237
▁barayi	-10238
▁guhuza	-10239
▁hashin	-10240
▁ugakan	-10241
▁yakore	-10242
▁yishwe	-10243
▁yizeye	-10244
MILIYONI	-10245
Ubugenza	-10246
▁BWINSHI	-10247
BIMUBWIRA	-10248
Inkotanyi	-10249
stronauts	-10250
▁BAKOREWE	-10251
▁BUSUWISI	-10252
▁HASHINGI	-10253
▁KWIBANDA	-10254
▁KWIZERWA	-10255
▁Karangwa	-10256
▁RUKORAMO	-10257
▁gusezera	-10258
▁hashingi	-10259
▁ibyemezo	-10260
▁itangaza	-10261
▁kuzamura	-10262
▁ugakanda	-10263
KURIKIRAHO	-10264
▁BIBUMBUYE	-10265
▁BIFITANYE	-10266
▁BIRAMUTSE	-10267
▁BISHOBOKA	-10268
▁BISHOBORA	-10269
▁BITARENZE	-10270
▁BITYEGUYE	-10271
▁BIYONGERA	-10272
▁BIZAFASHA	-10273
▁BONGEYEMO	-10274
▁BREAKFAST	-10275
▁BUHOLANDI	-10276
▁BWATUGOYE	-10277
▁BWEREMANA	-10278
▁BYABAYEHO	-10279
▁BYABEREYE	-10280
▁BYAMAMARE	-10281
▁BYASIGAYE	-10282
▁BYICIWEMO	-10283
▁Bibarutse	-10284
▁Buildings	-10285
▁Bweremana	-10286
▁CYAYOBOWE	-10287
▁CYISHYUJE	-10288
▁Costerton	-10289
▁EDUCATION	-10290
▁Education	-10291
▁Financial	-10292
▁GISHOBORA	-10293
▁GRONINGEN	-10294
▁GUHANGANA	-10295
▁GUSHOBOKA	-10296
▁GUSHYIRWA	-10297
▁GUTANGIZA	-10298
▁HABARURWA	-10299
CCY	-10300
MPE	-10301
ccy	-10302
eur	-10303
ASAN	-10304
Asan	-10305
PETA	-10306
SANO	-10307
funi	-10308
icya	-10309
sano	-10310
▁KAB	-10311
▁KAP	-10312
RECCY	-10313
TORES	-10314
hoeur	-10315
kanyi	-10316
reccy	-10317
yuzwe	-10318
▁BINO	-10319
▁KARI	-10320
▁KATU	-10321
▁NTAK	-10322
▁UMWU	-10323
ASANTE	-10324
Asante	-10325
Choeur	-10326
MPESHA	-10327
ikindi	-10328
sifuni	-10329
▁ACIKI	-10330
▁BYAFA	-10331
▁BYAGO	-10332
▁ISANO	-10333
▁KABGA	-10334
▁YAGEN	-10335
▁ahigi	-10336
▁binan	-10337
▁byari	-10338
▁isano	-10339
▁nakwe	-10340
kanyili	-10341
tanyije	-10342
▁BYAFAS	-10343
▁GUSABA	-10344
▁IMPETA	-10345
▁KAPITE	-10346
▁Mureke	-10347
▁STORES	-10348
▁TRECCY	-10349
▁Treccy	-10350
▁UBWUZU	-10351
▁UMWUKA	-10352
▁kubimu	-10353
▁njyewe	-10354
▁ubukan	-10355
HAMAGAJE	-10356
▁ASIGARA	-10357
▁BASINYA	-10358
▁BYARAGA	-10359
▁Bongole	-10360
▁Florida	-10361
▁IHAGAZE	-10362
▁KABGAYI	-10363
▁KATUMBA	-10364
▁Msifuni	-10365
▁NTAKWAN	-10366
▁YATUMYE	-10367
▁bijyana	-10368
▁uhereye	-10369
▁zingana	-10370
RABURINDI	-10371
fatanyije	-10372
zafatirwa	-10373
▁BUKOMEJE	-10374
▁BYATANGA	-10375
▁CYIGENDA	-10376
▁FREDRICK	-10377
▁JOSELYNE	-10378
▁KAPITENI	-10379
▁ahigitse	-10380
▁akoresha	-10381
▁banyuzwe	-10382
▁baremewe	-10383
▁biteguye	-10384
▁zirindwi	-10385
Abashinzwe	-10386
▁ACIKIRIZA	-10387
▁AKAMPESHA	-10388
▁BAKONGERA	-10389
▁BASHYIZWE	-10390
▁HAGENDEWE	-10391
▁HAMAGIJWE	-10392
▁HATEGURWA	-10393
▁HENRIETTE	-10394
▁IBISUBIZO	-10395
▁IBYIFASHI	-10396
▁IDASANZWE	-10397
▁IHANGANYE	-10398
▁IHARANIRA	-10399
oen	-10400
▁JA	-10401
RREN	-10402
UBWO	-10403
enze	-10404
peta	-10405
rien	-10406
voen	-10407
▁Den	-10408
▁Gen	-10409
▁NOT	-10410
▁the	-10411
avoen	-10412
bworo	-10413
drien	-10414
▁AZWI	-10415
▁Nyma	-10416
▁Rero	-10417
▁ZUBA	-10418
▁kida	-10419
▁kiro	-10420
▁kiru	-10421
▁kiti	-10422
▁kiza	-10423
▁kizo	-10424
ATWARA	-10425
UBWORO	-10426
Ubworo	-10427
VASIYO	-10428
YEMEZO	-10429
korana	-10430
▁AHARI	-10431
▁AKADU	-10432
▁Cyril	-10433
▁Denis	-10434
▁JARED	-10435
▁KOMAN	-10436
▁YABWO	-10437
HINDUKE	-10438
OVASIYO	-10439
guavoen	-10440
▁Adrien	-10441
▁GERAYO	-10442
▁WARREN	-10443
▁YAMUHA	-10444
▁hakaba	-10445
▁impeta	-10446
▁kibera	-10447
▁kiruta	-10448
HINDURWA	-10449
HINDUTSE	-10450
UBWOROZI	-10451
Ubworozi	-10452
▁AKADUHA	-10453
▁KOMANDA	-10454
▁UKUMARA	-10455
▁UZAGIRA	-10456
▁Umukino	-10457
▁WAKUNZE	-10458
▁guhanga	-10459
▁ifiriti	-10460
▁kirombe	-10461
▁yanenze	-10462
▁yihebye	-10463
IZITONORA	-10464
▁ABAHANGA	-10465
▁AHINDUKE	-10466
▁Augustin	-10467
▁BABIFATA	-10468
▁Eguavoen	-10469
▁IBYEMEZO	-10470
▁INATWARA	-10471
▁ITANGAZA	-10472
▁KIBARURA	-10473
▁NISHIMYE	-10474
▁WARAKOZE	-10475
▁bakoraga	-10476
▁bukomeje	-10477
▁gukorana	-10478
KWIRAKWIRA	-10479
umushahara	-10480
▁AGIKIRUKA	-10481
▁BINJIRIZA	-10482
▁Biramutse	-10483
▁IHEREREYE	-10484
▁IHINDURWA	-10485
▁IKIBARIMO	-10486
▁IKIGANIRO	-10487
▁IKORESHWA	-10488
▁INOVASIYO	-10489
▁INSTAGRAM	-10490
▁INYONGERA	-10491
▁IREREKANA	-10492
▁IYEGUKANA	-10493
▁IZEGUKANA	-10494
▁Iharanira	-10495
▁Ikibabaje	-10496
▁Ingengabi	-10497
▁KIRANGAZA	-10498
▁KUDASINYA	-10499
EAS	-10500
abi	-10501
EASY	-10502
gaho	-10503
hose	-10504
imbo	-10505
kika	-10506
pilo	-10507
riya	-10508
seka	-10509
seri	-10510
▁MBI	-10511
▁MIC	-10512
KIRWA	-10513
wamba	-10514
▁MIMI	-10515
▁Nira	-10516
▁hose	-10517
LIGIRA	-10518
TUGIRA	-10519
ZAGIRA	-10520
geramo	-10521
imboga	-10522
ingabo	-10523
mariya	-10524
pilote	-10525
tugira	-10526
zagira	-10527
▁MICYE	-10528
▁SINZI	-10529
▁agira	-10530
▁igira	-10531
FUNGURA	-10532
SHAKIRE	-10533
wambaro	-10534
▁BAVUGA	-10535
▁Bikira	-10536
▁Innova	-10537
▁KURUHU	-10538
▁MIKINO	-10539
▁Mariya	-10540
▁Niragi	-10541
▁SINJYE	-10542
▁WAGIRA	-10543
▁YATEYE	-10544
▁biyita	-10545
▁hagira	-10546
▁kumure	-10547
▁wagira	-10548
▁yaseka	-10549
▁yatowe	-10550
NSHAKIRE	-10551
YILIGIRA	-10552
▁BIZAJYA	-10553
▁IBIVUGA	-10554
▁IDAHITA	-10555
▁IZINGWA	-10556
▁NTUGIRA	-10557
▁abagira	-10558
▁gatsiko	-10559
▁ntugira	-10560
▁ugamije	-10561
▁wakunze	-10562
▁zigaban	-10563
garagazwa	-10564
yanditswe	-10565
▁AGITORWA	-10566
▁KURUHUKA	-10567
▁Komiseri	-10568
▁Niragire	-10569
▁YAFATIYE	-10570
▁YAZAGIRA	-10571
▁bavugaga	-10572
▁biyitaho	-10573
▁kubakika	-10574
▁kuyizana	-10575
▁mwambaro	-10576
▁yageramo	-10577
▁yazagira	-10578
MUNSHAKIRE	-10579
▁GUFUNGURA	-10580
▁IHASHYIRA	-10581
▁KUGABANYA	-10582
▁KUMVIKANA	-10583
▁KUYASINYA	-10584
▁KUZIHINDU	-10585
▁KWANDIKWA	-10586
▁KWIHARIRA	-10587
▁KWIRUKANA	-10588
▁KWISHYUZA	-10589
▁KWITEGURA	-10590
▁Kunanirwa	-10591
▁MBESHWAHO	-10592
▁MBIHAKANE	-10593
▁MBWIRWARU	-10594
▁MUDASOBWA	-10595
▁MUHANGUZI	-10596
▁Mukanyili	-10597
▁NABONYEHO	-10598
▁NANYUZEMO	-10599
COM	-10600
SWE	-10601
UBW	-10602
pha	-10603
FIRI	-10604
HOIR	-10605
INDA	-10606
MVAN	-10607
lizi	-10608
▁PRA	-10609
▁Pra	-10610
▁nke	-10611
gante	-10612
phabe	-10613
▁BAFA	-10614
▁TUBI	-10615
▁bame	-10616
▁yeru	-10617
INDABO	-10618
MVANGA	-10619
SAFIRI	-10620
abanya	-10621
geraga	-10622
liziya	-10623
phabet	-10624
▁ABAYI	-10625
▁BISWE	-10626
▁CHOIR	-10627
▁IBIZI	-10628
▁IZANA	-10629
▁PRAYE	-10630
▁Praye	-10631
▁WUNDI	-10632
▁ndimo	-10633
IRINDWI	-10634
legante	-10635
rongowe	-10636
rukanye	-10637
▁BAHORA	-10638
▁CYANYA	-10639
▁Intare	-10640
▁NTAJYA	-10641
▁PRAYER	-10642
▁Prayer	-10643
▁asanga	-10644
▁bameze	-10645
▁gusuzu	-10646
TIMVANGA	-10647
gerageza	-10648
hererezi	-10649
tegetswe	-10650
▁BAFATAN	-10651
▁BANGIRI	-10652
▁BYABAYE	-10653
▁MUGENZI	-10654
▁Thierry	-10655
▁YIBANZE	-10656
▁akivuka	-10657
▁inamaze	-10658
inyandiko	-10659
serukanye	-10660
▁ABAYIRAN	-10661
▁Alphabet	-10662
▁BASHINJA	-10663
▁COMMUNAU	-10664
▁Elegante	-10665
▁GASHUSHO	-10666
▁KUMUHUZA	-10667
▁KURESHYA	-10668
▁Kayitaba	-10669
▁Kiliziya	-10670
▁MUSAFIRI	-10671
▁YABEREYE	-10672
▁byasabye	-10673
▁gerageza	-10674
▁gusuzuma	-10675
▁mugoroba	-10676
▁yerurira	-10677
andakazaga	-10678
▁IMISHINGA	-10679
▁NARONGOWE	-10680
▁NATANGIYE	-10681
▁NIBAGIRWA	-10682
▁NJYENYINE	-10683
▁NTAKWANGA	-10684
▁NTAREMEZA	-10685
▁NTAWUVUMA	-10686
▁NTAZIGERA	-10687
▁NTIBIVEMO	-10688
▁NTIDUSHYI	-10689
▁NZAKOMORA	-10690
▁Narongowe	-10691
▁Nshobozwa	-10692
▁Ntawuvuma	-10693
▁PROCESSED	-10694
▁RIDAKWIYE	-10695
▁RIGANISHA	-10696
▁RUBYINIRO	-10697
▁RWABAYEHO	-10698
▁RWIHARIYE	-10699
AV	-10700
AVO	-10701
HAR	-10702
RIN	-10703
éle	-10704
▁Ky	-10705
FUZO	-10706
HARJ	-10707
HEBA	-10708
kuta	-10709
teze	-10710
tuwe	-10711
vana	-10712
▁KUM	-10713
▁Sin	-10714
▁UHA	-10715
AVOEN	-10716
RINGI	-10717
fatwa	-10718
▁BASI	-10719
▁Céle	-10720
▁INKA	-10721
▁Kaba	-10722
▁UBWI	-10723
▁YAHA	-10724
▁YASE	-10725
▁ishi	-10726
▁umwo	-10727
mukiye	-10728
rabuze	-10729
ranaje	-10730
vanamo	-10731
▁BASIC	-10732
▁BYACU	-10733
▁Bwana	-10734
▁IBERA	-10735
▁KHARJ	-10736
▁KUMWO	-10737
▁Kylin	-10738
▁Sinza	-10739
GUAVOEN	-10740
Uburezi	-10741
kubwira	-10742
▁Albert	-10743
▁BAKINA	-10744
▁MIRIMO	-10745
▁NIBUKA	-10746
▁YAHAMI	-10747
▁YASEKA	-10748
▁YASHYI	-10749
▁bataya	-10750
▁dutuwe	-10751
▁ingahe	-10752
▁ishira	-10753
▁rukuta	-10754
▁ryaryo	-10755
▁umwogo	-10756
▁yasubi	-10757
▁BURANGA	-10758
▁KUMWORO	-10759
▁KWIHEBA	-10760
▁gufatwa	-10761
▁gukorwa	-10762
▁idateze	-10763
▁ikimero	-10764
▁iwanjye	-10765
▁kurebwa	-10766
▁rifasha	-10767
▁ukabona	-10768
menyekane	-10769
▁BAVUGAGA	-10770
▁Célestin	-10771
▁EGUAVOEN	-10772
▁GUKOMEYE	-10773
▁GUSOHOKE	-10774
▁ICYIFUZO	-10775
▁UWIRINGI	-10776
▁YAHAMIJE	-10777
▁YASOREJE	-10778
▁bavanamo	-10779
▁gushinga	-10780
▁icyakora	-10781
▁narabuze	-10782
▁waranaje	-10783
▁yimukiye	-10784
garagarize	-10785
▁KUMWOROHE	-10786
▁RWUGARIYE	-10787
▁SHADDYBOO	-10788
▁SHORAMARI	-10789
▁SONATUBES	-10790
▁Shaddyboo	-10791
▁TERAMBERE	-10792
▁TERITWARI	-10793
▁TUZIRANYE	-10794
▁TWASHAKAA	-10795
▁UBWICANYI	-10796
▁UGARAGARA	-10797
▁UHARANIRA	-10798
▁UKAYIBAZA	-10799
ejo	-10800
ise	-10801
lta	-10802
uku	-10803
TATE	-10804
mira	-10805
oise	-10806
tawe	-10807
ulta	-10808
ïssa	-10809
▁ITA	-10810
▁ibu	-10811
BANJE	-10812
GOSHI	-10813
KONGE	-10814
LTATE	-10815
SABWA	-10816
uburo	-10817
xulta	-10818
çoise	-10819
▁AHAM	-10820
▁MAKU	-10821
▁RAJA	-10822
▁ingo	-10823
▁kubu	-10824
▁kuzu	-10825
▁muke	-10826
BISOMA	-10827
Exulta	-10828
HANINI	-10829
INTEKO	-10830
ULTATE	-10831
beraga	-10832
hagije	-10833
mirate	-10834
▁CYATA	-10835
▁NDIHO	-10836
▁ZISHO	-10837
▁ndiho	-10838
▁uyiha	-10839
WOGOSHI	-10840
XULTATE	-10841
guramba	-10842
mirates	-10843
▁AHAMYA	-10844
▁BAMEZE	-10845
▁HAMAZE	-10846
▁MAKUZA	-10847
▁Raïssa	-10848
▁SINJYA	-10849
▁USABWA	-10850
▁iburan	-10851
▁ingohe	-10852
▁kuzuza	-10853
▁mukeba	-10854
▁mushya	-10855
▁yashyi	-10856
▁yatawe	-10857
EXULTATE	-10858
Exultate	-10859
KONGERWA	-10860
TUBISOMA	-10861
UBUFASHA	-10862
uburobyi	-10863
▁AHANINI	-10864
▁Abagabo	-10865
▁BABANJE	-10866
▁BAKWIYE	-10867
▁Cyangwe	-10868
▁MPESHYI	-10869
▁NTAKOZE	-10870
▁rikorwa	-10871
gurambaga	-10872
▁BAKORERA	-10873
▁Emirates	-10874
▁IBYAVUYE	-10875
▁KOMISIYO	-10876
▁TWAREMYE	-10877
▁bihagije	-10878
▁kubuyobo	-10879
▁waberaga	-10880
▁wantumye	-10881
▁BARANGIJE	-10882
▁Françoise	-10883
▁UKUGARURA	-10884
▁UKUZICAHO	-10885
▁UMUKUNDWA	-10886
▁UMUPILOTE	-10887
▁UMUSASURO	-10888
▁UMUTEKANO	-10889
▁UMWOGOSHI	-10890
▁UNDERSTAN	-10891
▁URWANDIKO	-10892
▁UTAZAVUGA	-10893
▁UTORAGURA	-10894
▁UYIKENEYE	-10895
▁UZATSINDA	-10896
▁UZEGUKANA	-10897
▁Umukundwa	-10898
▁VALENTINE	-10899
sé	-10900
ËL	-10901
NER	-10902
UKU	-10903
sée	-10904
▁at	-10905
NERG	-10906
NIBU	-10907
TEKO	-10908
hago	-10909
hezo	-10910
▁BAE	-10911
▁BAG	-10912
▁BAR	-10913
▁Big	-10914
▁RYI	-10915
Ijuru	-10916
NERGY	-10917
lisée	-10918
▁ARAN	-10919
▁Buho	-10920
▁KUGI	-10921
▁hati	-10922
▁mama	-10923
▁zabo	-10924
UMUHAN	-10925
WAHOZE	-10926
illiam	-10927
onique	-10928
rohera	-10929
yimana	-10930
▁Buhol	-10931
▁IKAKU	-10932
▁INKIN	-10933
▁NTEKO	-10934
▁RIZWI	-10935
▁RYIZA	-10936
▁ryayo	-10937
IGIPIMO	-10938
NIBUTSE	-10939
UMUGABO	-10940
UWAHOZE	-10941
YIKUNDA	-10942
fashije	-10943
gamijwe	-10944
heranwa	-10945
▁ARANTA	-10946
▁ENERGY	-10947
▁Elisée	-10948
▁HURIRO	-10949
▁INTEGE	-10950
▁ISRAËL	-10951
▁RWIGAN	-10952
▁YAKORA	-10953
▁atinda	-10954
▁ibanga	-10955
▁izisya	-10956
▁muhezo	-10957
▁ruhago	-10958
UMUHANDA	-10959
giyimana	-10960
worohera	-10961
▁AMEREWE	-10962
▁INKINGO	-10963
▁Monique	-10964
▁Rulindo	-10965
▁William	-10966
daheranwa	-10967
mworohera	-10968
ngiyimana	-10969
▁RWIGANJE	-10970
▁Umutungo	-10971
▁banyweye	-10972
▁itangiye	-10973
IKIMENYABO	-10974
bagaragaje	-10975
▁ARANTAMBA	-10976
▁Buholandi	-10977
▁IKAKUBERA	-10978
▁Valentine	-10979
▁WIYONGERA	-10980
▁YABATIJWE	-10981
▁YABYARAGA	-10982
▁YAGENDAGA	-10983
▁YAGURISHA	-10984
▁YAHUNGAGA	-10985
▁YAMUBWIYE	-10986
▁YAMUKUNZE	-10987
▁YAMURITSE	-10988
▁YANAKWIYA	-10989
▁YANGANAGA	-10990
▁YARAHUNZE	-10991
▁YARASABYE	-10992
▁YARWANIYE	-10993
▁YASANGIJE	-10994
▁YASHINZWE	-10995
▁YASINYIYE	-10996
▁YATANGIRA	-10997
▁YATORWAGA	-10998
▁YEREKANYE	-10999
Iyo	-11000
Las	-11001
swe	-11002
▁ST	-11003
MMAN	-11004
PANI	-11005
ROHO	-11006
SISI	-11007
guwe	-11008
hame	-11009
raso	-11010
rayi	-11011
▁ATE	-11012
▁IKE	-11013
▁ngu	-11014
SOMWE	-11015
TONDA	-11016
banje	-11017
ibice	-11018
▁NIRA	-11019
▁YAWE	-11020
▁kuya	-11021
▁waso	-11022
▁yayi	-11023
Lascia	-11024
WEGERA	-11025
YAPANI	-11026
YOBOKA	-11027
humura	-11028
ruhame	-11029
▁ATERU	-11030
▁EMMAN	-11031
▁IKEME	-11032
▁NTIZI	-11033
▁bindi	-11034
▁biswe	-11035
▁proce	-11036
GUHUNZE	-11037
UWEGERA	-11038
▁Burayi	-11039
▁MASISI	-11040
▁NIRAGI	-11041
▁ahumye	-11042
▁bahoze	-11043
▁humura	-11044
▁kubiba	-11045
▁kuzana	-11046
▁procee	-11047
BUYOBOKA	-11048
▁ARAVUZE	-11049
▁ATERUYE	-11050
▁GITANGA	-11051
▁IBIRORI	-11052
▁IKEMERE	-11053
▁NTIZITE	-11054
▁WASOMWE	-11055
▁YITONDA	-11056
▁abatoza	-11057
▁amaraso	-11058
▁babanje	-11059
▁gitanga	-11060
▁idahita	-11061
▁singiza	-11062
▁wasomwe	-11063
bimusabye	-11064
▁BUYAPANI	-11065
▁EMMANUEL	-11066
▁MASOZERA	-11067
▁NGUHUNZE	-11068
▁NIRAGIRE	-11069
▁RYUNGUKA	-11070
▁YASHYIZE	-11071
▁nguhunze	-11072
▁turifuza	-11073
▁twabonye	-11074
UMWAMIKAZI	-11075
▁IMPINDUKA	-11076
▁YIBAGIRWA	-11077
▁YISUMBUYE	-11078
▁YONGEYEHO	-11079
▁Yanditswe	-11080
▁Yatangiye	-11081
▁Yongeyeho	-11082
▁ZIGABANYA	-11083
▁ZIHIMBAZA	-11084
▁ZISHOBORA	-11085
▁ZISHYURWA	-11086
▁ababukora	-11087
▁abikorera	-11088
▁acikiriza	-11089
▁adahumeka	-11090
▁agikiruka	-11091
▁ahanganye	-11092
▁ahatanira	-11093
▁akarwanya	-11094
▁atabikora	-11095
▁atakiriho	-11096
▁ategetswe	-11097
▁ayakuriki	-11098
▁bafitanye	-11099
RUJ	-11100
TEL	-11101
gha	-11102
KAMU	-11103
SHWE	-11104
yeho	-11105
▁Biz	-11106
KARUJ	-11107
SHEHO	-11108
ghazi	-11109
▁KIMI	-11110
▁NYAN	-11111
▁YAYI	-11112
BANIRE	-11113
RANAHO	-11114
SIBIKA	-11115
▁AGACA	-11116
▁BYAYO	-11117
▁CHITA	-11118
▁HOTEL	-11119
▁IGIRA	-11120
▁Ibihu	-11121
▁KUZAN	-11122
▁Texas	-11123
▁byayo	-11124
▁urumu	-11125
AMAKIPE	-11126
KARUJAN	-11127
TWARAKU	-11128
▁ABITWA	-11129
▁BAYIBE	-11130
▁GUHURA	-11131
▁KUBIMU	-11132
▁Mutesi	-11133
▁NYANZA	-11134
▁RIKAMU	-11135
▁Tatoos	-11136
▁YISHWE	-11137
▁baraba	-11138
▁bigiye	-11139
▁kuruta	-11140
▁navuga	-11141
▁ntitwa	-11142
▁tegeko	-11143
▁wavuga	-11144
KAGARUKA	-11145
kagaruka	-11146
▁BIRANGA	-11147
▁BYAGIZE	-11148
▁Byageze	-11149
▁Ibihuha	-11150
▁KUBAZWA	-11151
▁URUGERO	-11152
▁bitajya	-11153
▁ukumara	-11154
▁urumuri	-11155
DAHERANWA	-11156
KARUJANGA	-11157
▁BISIBIKA	-11158
▁Benghazi	-11159
▁IRUSHEHO	-11160
▁MIBANIRE	-11161
▁gashusho	-11162
▁zifatiye	-11163
ramikorere	-11164
umusimbura	-11165
▁FRANÇOISE	-11166
▁IKIBABAJE	-11167
▁KUTAJYANA	-11168
▁bagombaga	-11169
▁bahatanye	-11170
▁bakamwita	-11171
▁bakekwaho	-11172
▁bakongera	-11173
▁bakoranye	-11174
▁bakwizera	-11175
▁barangije	-11176
▁baririmba	-11177
▁bashyizwe	-11178
▁batandatu	-11179
▁batangaga	-11180
▁batangire	-11181
▁batangiza	-11182
▁batarenga	-11183
▁batikanga	-11184
▁batishobo	-11185
▁batubwiye	-11186
▁bayifasha	-11187
▁baziranye	-11188
▁bibaranga	-11189
▁bibarirwa	-11190
▁bigerwaho	-11191
▁bigizwemo	-11192
▁binangize	-11193
▁binjiriza	-11194
▁bishoboka	-11195
▁bishobora	-11196
▁bishyirwa	-11197
▁biyongera	-11198
▁bizafasha	-11199
YR	-11200
eb	-11201
AKO	-11202
YRN	-11203
ebd	-11204
zam	-11205
▁FA	-11206
GAGA	-11207
GAZE	-11208
HURE	-11209
INKO	-11210
RARA	-11211
bara	-11212
rish	-11213
zara	-11214
▁Nza	-11215
▁Ure	-11216
THURE	-11217
rossi	-11218
tball	-11219
▁Aban	-11220
▁Azam	-11221
▁FAGI	-11222
▁IYRN	-11223
▁Ruba	-11224
▁bisi	-11225
▁gato	-11226
▁imvu	-11227
▁nini	-11228
▁tuza	-11229
RIOMPA	-11230
muhaye	-11231
rabona	-11232
ssador	-11233
▁Krish	-11234
▁MYIZA	-11235
▁UMUMA	-11236
▁abayo	-11237
▁byana	-11238
▁isura	-11239
▁izamu	-11240
▁utoza	-11241
INKOTAN	-11242
MPAGAZE	-11243
RIOMPAL	-11244
SHIMIYE	-11245
SHYIMBO	-11246
ketball	-11247
ssadors	-11248
▁Abantu	-11249
▁BUBIRI	-11250
▁FAGITU	-11251
▁GIKORA	-11252
▁Grossi	-11253
▁Isimbi	-11254
▁Rubavu	-11255
▁Uretse	-11256
▁ZIRARA	-11257
▁bagize	-11258
▁habaho	-11259
▁imvune	-11260
▁inzara	-11261
▁mabara	-11262
▁yakora	-11263
GAGACIRO	-11264
sketball	-11265
▁ASANGWA	-11266
▁BONHEUR	-11267
▁CHRISTA	-11268
▁DUHABWA	-11269
▁INSHURO	-11270
▁KITHURE	-11271
▁Nzakomo	-11272
▁UMUMARO	-11273
▁akorana	-11274
▁izingwa	-11275
▁ngombwa	-11276
▁nkicuza	-11277
▁umunara	-11278
▁umuseke	-11279
▁urabona	-11280
▁urwandi	-11281
▁yagumye	-11282
ICYUMWERU	-11283
INKOTANYI	-11284
▁AMPAGAZE	-11285
▁BISANZWE	-11286
▁FAGITURE	-11287
▁TRIOMPAL	-11288
▁URUGAMBA	-11289
▁bisibika	-11290
IGIKUNDIRO	-11291
mbassadors	-11292
▁BARIRIMBA	-11293
▁IFASHIJWE	-11294
▁Nzakomora	-11295
▁YASHIMIYE	-11296
▁akampesha	-11297
▁bongeyemo	-11298
▁butegetsi	-11299
Arc	-11300
tel	-11301
▁Yu	-11302
BIKO	-11303
ICYE	-11304
ZURO	-11305
gayi	-11306
pard	-11307
ruye	-11308
▁kub	-11309
SENGA	-11310
SHIKI	-11311
YENDA	-11312
bgayi	-11313
spard	-11314
tijwe	-11315
▁Musa	-11316
▁give	-11317
▁hama	-11318
▁iryo	-11319
▁katu	-11320
▁kubw	-11321
ICYEZA	-11322
teruye	-11323
▁FIRST	-11324
▁Hotel	-11325
▁IBUYE	-11326
▁NGOGA	-11327
▁RYARI	-11328
▁nishi	-11329
WANZURO	-11330
▁INGANA	-11331
▁Kubaho	-11332
▁ROBERT	-11333
▁YIGEZE	-11334
▁bisaba	-11335
▁dufana	-11336
▁hakaza	-11337
▁hamagi	-11338
▁ibyate	-11339
▁umugan	-11340
regukana	-11341
tegereza	-11342
▁DUSENGA	-11343
▁Gaspard	-11344
▁IHAGARA	-11345
▁IMYENDA	-11346
▁Kabgayi	-11347
▁Kennedy	-11348
▁MUSHIKI	-11349
▁UBUBIKO	-11350
▁agatuma	-11351
▁ateruye	-11352
▁katumba	-11353
▁umugani	-11354
YEGUKANYE	-11355
▁BIKAVAMO	-11356
▁MWANZURO	-11357
▁Musafiri	-11358
▁NZARINDA	-11359
▁ZIFATIYE	-11360
▁ibyateje	-11361
▁ishakiro	-11362
▁nishimye	-11363
▁udakwiye	-11364
▁yagiyeho	-11365
IBIKORESHO	-11366
SOBANURIRA	-11367
shyiriraho	-11368
▁ATABIKORA	-11369
▁BUTEGETSI	-11370
▁GUFATANYA	-11371
▁Groningen	-11372
▁IHAGARARE	-11373
▁bwihariye	-11374
▁byabayeho	-11375
▁byabereye	-11376
▁byagaraga	-11377
▁byamamare	-11378
▁byashyize	-11379
▁byasigaye	-11380
▁byiciwemo	-11381
▁cyageraho	-11382
▁cyishyuje	-11383
▁dushobora	-11384
▁gishobora	-11385
▁gufatanya	-11386
▁gufungura	-11387
▁guhangana	-11388
▁guhembera	-11389
▁gushoboka	-11390
▁gushyirwa	-11391
▁gutangiza	-11392
▁habarurwa	-11393
▁hagendewe	-11394
▁hamagijwe	-11395
▁hashinzwe	-11396
▁hashoboka	-11397
▁hategurwa	-11398
▁ibisobanu	-11399
EB	-11400
Qu	-11401
▁d	-11402
▁É	-11403
EBD	-11404
Que	-11405
sub	-11406
▁CÉ	-11407
▁ÉC	-11408
FUKA	-11409
MUGA	-11410
RETO	-11411
▁AJE	-11412
▁Bye	-11413
▁Chi	-11414
▁GUT	-11415
▁KUB	-11416
▁Kha	-11417
▁Ndu	-11418
▁Que	-11419
▁aye	-11420
▁sub	-11421
KONDO	-11422
abarw	-11423
ngiye	-11424
▁AMWE	-11425
▁Chio	-11426
▁CÉLE	-11427
▁KUBW	-11428
▁Khar	-11429
▁Sibo	-11430
kinira	-11431
muraga	-11432
▁Byera	-11433
▁GUTYA	-11434
▁Kharj	-11435
▁LIGHT	-11436
▁NKACA	-11437
▁PRETO	-11438
▁Queen	-11439
▁YARWO	-11440
▁ZAJYA	-11441
▁atuje	-11442
▁azana	-11443
▁ibire	-11444
▁ukaba	-11445
▁ÉCRAN	-11446
RWANYWA	-11447
gezwaho	-11448
vuzweho	-11449
▁BUKABA	-11450
▁DUFANA	-11451
▁MUFUKA	-11452
▁Mendes	-11453
▁Mukura	-11454
▁Ndumba	-11455
▁Yanjye	-11456
▁bikaza	-11457
INGURANE	-11458
▁AGASOZA	-11459
▁GAKONDO	-11460
▁IGITABO	-11461
▁IHUMURE	-11462
▁UBUMUGA	-11463
▁bakekwa	-11464
▁bashoye	-11465
▁bikunze	-11466
▁bongere	-11467
▁ibirego	-11468
▁igiciro	-11469
▁ukinira	-11470
BURANISHA	-11471
▁AMATANGA	-11472
▁ARWANYWA	-11473
▁CÉLESTIN	-11474
▁ICYOREZO	-11475
▁KWINJIZA	-11476
▁PRETORIA	-11477
▁TUDAFITE	-11478
▁Umugisha	-11479
▁agatsiko	-11480
▁guhatana	-11481
▁zibyazwe	-11482
▁BWIHARIYE	-11483
▁ibitaramo	-11484
▁ibyifashi	-11485
▁ibyinjira	-11486
▁idasanzwe	-11487
▁ihashyira	-11488
▁ihendutse	-11489
▁ikibarimo	-11490
▁ikiganiro	-11491
▁ikoranabu	-11492
▁ikoreshwa	-11493
▁imishinga	-11494
▁imiterere	-11495
▁irakomeye	-11496
▁iregukana	-11497
▁irerekana	-11498
▁iyegukana	-11499
Do	-11500
yr	-11501
yrn	-11502
▁AY	-11503
▁Fe	-11504
Dore	-11505
GESE	-11506
LIZI	-11507
MINA	-11508
▁Cho	-11509
▁Feu	-11510
▁san	-11511
yumva	-11512
▁Choi	-11513
▁Gera	-11514
▁HATI	-11515
▁Iyrn	-11516
▁Maso	-11517
▁NAYO	-11518
▁bida	-11519
▁zaso	-11520
GESERA	-11521
LIZIYA	-11522
UMUTWE	-11523
ZAMINA	-11524
bisoma	-11525
indimi	-11526
▁Choir	-11527
▁IBIRE	-11528
▁IHARI	-11529
▁Jared	-11530
▁abiye	-11531
▁gupfa	-11532
▁BIHUZA	-11533
▁Gerayo	-11534
▁HANDEL	-11535
▁UGOMBA	-11536
▁abyaye	-11537
▁zasoho	-11538
▁zigira	-11539
ISANZURE	-11540
tubisoma	-11541
▁BAJYAGA	-11542
▁IBIREGO	-11543
▁IGIPIMO	-11544
▁UDUSHYA	-11545
▁bangana	-11546
▁biyumva	-11547
▁gifasha	-11548
▁ihigika	-11549
▁plugins	-11550
▁twakuze	-11551
▁wagizwe	-11552
▁yajyaga	-11553
bimubwira	-11554
▁BUGESERA	-11555
▁BUZABERA	-11556
▁GUSABANA	-11557
▁KILIZIYA	-11558
▁Masozera	-11559
▁SEIGNEUR	-11560
▁bidasubi	-11561
▁ibarizwa	-11562
▁yakuyemo	-11563
▁zigamije	-11564
Uruhongore	-11565
umunyemari	-11566
▁IHENDUTSE	-11567
▁NTAWABICA	-11568
▁UMUNEZERO	-11569
▁YAMUFASHA	-11570
▁abiyegere	-11571
▁batangira	-11572
▁bazahabwa	-11573
▁bityeguye	-11574
▁kirangaza	-11575
▁kubafasha	-11576
▁kubikundi	-11577
▁kugabanya	-11578
▁kugurisha	-11579
▁kumubyiga	-11580
▁kumvikana	-11581
▁kunanirwa	-11582
▁kutajyana	-11583
▁kuzifashi	-11584
▁kwandikwa	-11585
▁kwiharira	-11586
▁kwirukana	-11587
▁kwishyuza	-11588
▁kwitegura	-11589
▁mbihakane	-11590
▁mudasobwa	-11591
▁myugariro	-11592
▁nabonyeho	-11593
▁nakubwira	-11594
▁nakwemeza	-11595
▁nanyuzemo	-11596
▁naringiye	-11597
▁natangiye	-11598
▁nibagirwa	-11599
uwe	-11600
KARA	-11601
TUWE	-11602
gram	-11603
reho	-11604
yaba	-11605
zeyo	-11606
▁Bar	-11607
▁ine	-11608
MERAN	-11609
kingo	-11610
shiki	-11611
tangu	-11612
yutse	-11613
▁BAJE	-11614
▁Camp	-11615
▁Turi	-11616
▁baya	-11617
▁kwic	-11618
▁mubi	-11619
yabaro	-11620
yagize	-11621
▁AGIRA	-11622
▁ATUJE	-11623
▁MUKAN	-11624
▁Phann	-11625
▁RUNDI	-11626
▁UDUCE	-11627
▁araza	-11628
▁cyavu	-11629
▁ryose	-11630
HIMBAJE	-11631
UMUFANA	-11632
UMUKARA	-11633
stagram	-11634
uwegera	-11635
▁DUTUWE	-11636
▁EMERAN	-11637
▁Hagiye	-11638
▁Phanny	-11639
▁UKUMVA	-11640
▁Umwami	-11641
▁YIYUBA	-11642
▁kubika	-11643
▁kwicwa	-11644
▁mubizi	-11645
shyireho	-11646
yerekeza	-11647
▁AFUNGWA	-11648
▁BYIHUSE	-11649
▁Cyagize	-11650
▁IBONEKA	-11651
▁RIKORWA	-11652
▁bagomba	-11653
▁basinya	-11654
▁buranga	-11655
▁gutangu	-11656
▁inkingo	-11657
▁mushiki	-11658
▁ububiko	-11659
yangombwa	-11660
▁IKURWAMO	-11661
▁NAGIKOZE	-11662
▁YATSINZE	-11663
▁arangiye	-11664
▁asanzeyo	-11665
▁bakagera	-11666
▁basahuye	-11667
▁imyabaro	-11668
▁ndabyara	-11669
▁rigamije	-11670
▁wavukiye	-11671
▁wayoboye	-11672
INJIRIZAHO	-11673
hindurweho	-11674
▁BAFITANYE	-11675
▁BAHIMBAJE	-11676
▁Instagram	-11677
▁KUBIGENDE	-11678
▁RIKORWAMO	-11679
▁YIYUBATSE	-11680
▁njyenyine	-11681
▁nshingano	-11682
▁ntakwanga	-11683
▁ntaremeza	-11684
▁ntawabica	-11685
▁ntazigera	-11686
▁ntekereza	-11687
▁ntibukora	-11688
▁processed	-11689
▁ridakwiye	-11690
▁riganisha	-11691
▁rishobora	-11692
▁risuzumwa	-11693
▁rubyiruko	-11694
▁rwabayeho	-11695
▁rwihariye	-11696
▁ryabereye	-11697
▁twaremewe	-11698
▁ubutumire	-11699
XHI	-11700
▁Mo	-11701
FITI	-11702
ZARA	-11703
raje	-11704
▁ESE	-11705
▁FEU	-11706
▁Nzo	-11707
BWAHO	-11708
SHAHO	-11709
XHIBI	-11710
ZENGU	-11711
▁LEGI	-11712
▁PAUL	-11713
▁WAJE	-11714
FITIYE	-11715
REBANA	-11716
rajemo	-11717
▁CYAGE	-11718
▁DOMIN	-11719
▁Momba	-11720
▁Nzovu	-11721
▁RUJYE	-11722
▁URIMO	-11723
▁kwing	-11724
▁ngabo	-11725
▁rwazi	-11726
INTANGA	-11727
TABWAHO	-11728
YOBOTSE	-11729
yobotse	-11730
ÉLICIEN	-11731
▁BABIZI	-11732
▁BISAGA	-11733
▁DOMINO	-11734
▁EXHIBI	-11735
▁Godfre	-11736
▁HABIYA	-11737
▁INGOMA	-11738
▁INZARA	-11739
▁LEGION	-11740
▁NAGUYE	-11741
▁NINJYE	-11742
▁NKUNDA	-11743
▁SEARCH	-11744
▁buzaba	-11745
▁utatse	-11746
IMYITOZO	-11747
▁AKAYABO	-11748
▁Godfrey	-11749
▁HABIYAM	-11750
▁KIZENGU	-11751
▁Mombasa	-11752
▁NKATERA	-11753
▁bakanga	-11754
▁hakwiye	-11755
▁kubagwa	-11756
TITABWAHO	-11757
kuyobotse	-11758
▁ABDALLAH	-11759
▁BIKORERA	-11760
▁BIREBANA	-11761
▁FÉLICIEN	-11762
▁Softbank	-11763
▁Uwatumye	-11764
▁ahinduke	-11765
▁harajemo	-11766
▁icyifuzo	-11767
▁kuzingwa	-11768
UMUCAMANZA	-11769
dutegurire	-11770
▁AYAKURIKI	-11771
▁BIRUSHAHO	-11772
▁CYAGERAGA	-11773
▁Frederick	-11774
▁IBIFITIYE	-11775
▁NARIHEBYE	-11776
▁NSHINGANO	-11777
▁NTEKEREZA	-11778
▁RUBYIRUKO	-11779
▁ZISHOYEMO	-11780
▁kwinginga	-11781
▁ugaragara	-11782
▁uharanira	-11783
▁ukakibona	-11784
▁ukugarura	-11785
▁ukuzicaho	-11786
▁umunezero	-11787
▁umupilote	-11788
▁umwogoshi	-11789
▁understan	-11790
▁urwandiko	-11791
▁urwibutso	-11792
▁ushingiye	-11793
▁utazavuga	-11794
▁uzegukana	-11795
▁wiyongera	-11796
▁yabashije	-11797
▁yabatijwe	-11798
▁yabyaraga	-11799
Ro	-11800
lan	-11801
HEZO	-11802
MINI	-11803
RASO	-11804
Roho	-11805
lang	-11806
muga	-11807
▁Ara	-11808
▁DIE	-11809
▁Lor	-11810
▁bah	-11811
sabwa	-11812
▁KAKA	-11813
▁Lord	-11814
▁Mama	-11815
▁YATA	-11816
mbitse	-11817
shinze	-11818
▁AREBE	-11819
▁Arabi	-11820
▁Cyari	-11821
▁Plang	-11822
▁UKINA	-11823
▁birwa	-11824
▁bwatu	-11825
shyitsi	-11826
▁Arabia	-11827
▁BIBUGA	-11828
▁GEMINI	-11829
▁Israel	-11830
▁KUBAZA	-11831
▁MUHEZO	-11832
▁Urubwa	-11833
▁YATAWE	-11834
▁bubaye	-11835
▁ubumen	-11836
▁urebye	-11837
▁usabwa	-11838
▁waraje	-11839
TUBEREYE	-11840
hamagawe	-11841
▁AMARASO	-11842
▁UFUNGUO	-11843
▁UHAGAZE	-11844
▁YAJYAGA	-11845
▁igisebo	-11846
▁magingo	-11847
▁nambara	-11848
▁ubumuga	-11849
▁BASABIWE	-11850
▁BATURAGE	-11851
▁GUHURIZA	-11852
▁KAKAGERA	-11853
▁YAHEREYE	-11854
▁ZITAKAZA	-11855
▁gukomeza	-11856
▁kuzakora	-11857
▁nyandiko	-11858
▁ubumenyi	-11859
▁yambitse	-11860
DUTEGURIRE	-11861
▁AHATANIRA	-11862
▁Abadepite	-11863
▁BATANDATU	-11864
▁FINANCIAL	-11865
▁IBITARAMO	-11866
▁IMITERERE	-11867
▁NAKOZWEHO	-11868
▁NAKWEMEZA	-11869
▁bwatugoye	-11870
▁cyashinze	-11871
▁ihindurwa	-11872
▁izegukana	-11873
▁yahungaga	-11874
▁yamubwiye	-11875
▁yamukunze	-11876
▁yarwaniye	-11877
▁yasangije	-11878
▁yashinzwe	-11879
▁yashyizwe	-11880
▁yatangira	-11881
▁yatorwaga	-11882
▁yatunguye	-11883
▁yerekanye	-11884
▁yibagirwa	-11885
▁yiyubatse	-11886
▁yiyumvise	-11887
▁yumvikana	-11888
▁zasohotse	-11889
▁zigabanya	-11890
▁zihimbaza	-11891
▁zishoyemo	-11892
ABANCANCURO	-11893
AGASUZUGURO	-11894
AMACAKUBIRI	-11895
AMAKOMPANYI	-11896
Abancancuro	-11897
DASUBIRWAHO	-11898
IBIDUKIKIJE	-11899
NIS	-11900
REMA	-11901
SCIA	-11902
gion	-11903
moka	-11904
▁Ayo	-11905
▁IKO	-11906
▁KRI	-11907
▁LOR	-11908
▁MYU	-11909
LEGAN	-11910
RWAYA	-11911
ssien	-11912
▁GACE	-11913
▁HUYE	-11914
▁LORD	-11915
▁MINA	-11916
▁hanz	-11917
▁niho	-11918
Dorcas	-11919
LASCIA	-11920
hanini	-11921
takaza	-11922
urundi	-11923
▁AHORA	-11924
▁BWOKO	-11925
▁DENIS	-11926
▁KRISH	-11927
▁MYUGA	-11928
▁akadu	-11929
▁kuzan	-11930
▁nzani	-11931
KUBWIRA	-11932
LEGANTE	-11933
kozweho	-11934
▁Demoka	-11935
▁KUGURA	-11936
▁Legion	-11937
▁MAHORO	-11938
▁RUREMA	-11939
▁yangan	-11940
GUKANYWE	-11941
▁Burundi	-11942
▁Cassien	-11943
▁IRAMARA	-11944
▁Mehfira	-11945
▁UTAGIRA	-11946
▁ahanini	-11947
▁akaduha	-11948
▁intonde	-11949
▁ivuguru	-11950
Umugabane	-11951
Umuyobozi	-11952
YIKORESHA	-11953
▁ADASHAKA	-11954
▁ELEGANTE	-11955
▁GUHITAMO	-11956
▁ITANGIRA	-11957
▁MATEGEKO	-11958
▁NYARWAYA	-11959
▁abahanga	-11960
▁bahoraho	-11961
▁ibyiciro	-11962
▁uburyohe	-11963
▁zitakaza	-11964
UMUSIMBURA	-11965
Ziravumera	-11966
igikundiro	-11967
mwinjiriza	-11968
▁BAGIRANYE	-11969
▁MYUGARIRO	-11970
▁NAKUBWIRA	-11971
▁NSHOBOZWA	-11972
▁Sonatubes	-11973
▁bashakaga	-11974
▁cyayobowe	-11975
▁nakozweho	-11976
▁tuziranye	-11977
▁ubwicanyi	-11978
▁warangiye	-11979
▁yarahunze	-11980
▁zishobora	-11981
IBITEKEREZO	-11982
ICYONGEREZA	-11983
Ibidukikije	-11984
Ibitekerezo	-11985
KURIKIRANYA	-11986
RIRIMBIRAMO	-11987
SHINGAMUTWE	-11988
TANDUKANAGA	-11989
UBUGIRANEZA	-11990
UMUSHYUSHYA	-11991
VUGURURWAHO	-11992
ZINYARWANDA	-11993
agasuzuguro	-11994
amacakubiri	-11995
byubahiriza	-11996
gisesengura	-11997
hererekanya	-11998
icyongereza	-11999
Ni	-12000
id	-12001
IYA	-12002
ger	-12003
CIWE	-12004
KEYE	-12005
Nibu	-12006
rdon	-12007
roid	-12008
ture	-12009
wiri	-12010
▁Owe	-12011
▁Uza	-12012
ACMAN	-12013
HOTSE	-12014
REMYI	-12015
ijoro	-12016
samba	-12017
▁KAZA	-12018
▁Owen	-12019
▁Soma	-12020
▁Zira	-12021
▁bire	-12022
▁yawe	-12023
gikoze	-12024
giture	-12025
▁AHUZA	-12026
▁Abdul	-12027
▁Roger	-12028
▁SALON	-12029
▁Uwiri	-12030
Nibutse	-12031
SOHOTSE	-12032
YUMVISE	-12033
▁BATARI	-12034
▁BICIWE	-12035
▁BUBAYE	-12036
▁KUBANA	-12037
▁NTAWAN	-12038
▁Uburyo	-12039
▁Zirara	-12040
▁bagura	-12041
▁baguye	-12042
▁yamusi	-12043
UMUREMYI	-12044
fagiture	-12045
shyuraga	-12046
▁Android	-12047
▁BYICIRO	-12048
▁IBITEGO	-12049
▁Masamba	-12050
▁RYAKEYE	-12051
▁YAHIMWE	-12052
▁Yverdon	-12053
▁ryamaze	-12054
▁yamusim	-12055
ZUMUREMYI	-12056
▁BADAKORA	-12057
▁ISAACMAN	-12058
▁KAZAGERA	-12059
▁KUBABAZA	-12060
▁MUTEKANO	-12061
▁UMUTUNGO	-12062
▁adashaka	-12063
▁basabiwe	-12064
▁birebana	-12065
▁fagiture	-12066
▁imitungo	-12067
▁iturutse	-12068
▁nagikoze	-12069
▁rwatanze	-12070
TANGURANWA	-12071
ubucungure	-12072
▁BIGANISHA	-12073
▁Bahimbaje	-12074
▁HASHOBOKA	-12075
▁KUMUBWIRA	-12076
▁NTIBUKORA	-12077
▁SINABYEME	-12078
▁Uzatsinda	-12079
▁ZASOHOTSE	-12080
▁arambwira	-12081
▁babarirwa	-12082
▁ibihangan	-12083
▁kudasinya	-12084
▁yarasabye	-12085
▁yashimiye	-12086
kurikiranya	-12087
ragabanutse	-12088
rakuyobotse	-12089
ririmbiramo	-12090
shakashatsi	-12091
shingamutwe	-12092
tandukanaga	-12093
vugururwaho	-12094
zamusimbura	-12095
▁ABINYUJIJE	-12096
▁ADATEGANYA	-12097
▁AHAGARUTSE	-12098
▁AMAHUGURWA	-12099
Ou	-12100
SÉ	-12101
▁é	-12102
SÉE	-12103
▁MO	-12104
▁éc	-12105
KEBA	-12106
RIYA	-12107
tono	-12108
▁BOO	-12109
▁Boo	-12110
▁MWA	-12111
▁aje	-12112
KUNGA	-12113
LISÉE	-12114
cyuya	-12115
▁PARO	-12116
KINIKE	-12117
huriza	-12118
ngenge	-12119
tonora	-12120
▁BASHI	-12121
▁MOMBA	-12122
▁PROCE	-12123
▁PROTA	-12124
▁UKAKI	-12125
▁kugwa	-12126
▁ryuba	-12127
▁écran	-12128
SHIMIRA	-12129
▁BASHIR	-12130
▁BUGOYE	-12131
▁ELISÉE	-12132
▁INNOCE	-12133
▁Icyuya	-12134
▁Irindi	-12135
▁MARIYA	-12136
▁MUGORO	-12137
▁MUKEBA	-12138
▁MWAMBA	-12139
▁PAROLE	-12140
▁PROCEE	-12141
▁RUGIYE	-12142
▁kigero	-12143
BUGENEWE	-12144
GARAGAMB	-12145
dutsinda	-12146
zitonora	-12147
▁BITANGA	-12148
▁CYABAYE	-12149
▁CYANJYE	-12150
▁INKUNGA	-12151
▁Kirumbu	-12152
▁MOMBASA	-12153
▁PROTAIS	-12154
▁RISUZUM	-12155
▁WAGENZE	-12156
▁YATUNGU	-12157
▁ibivuga	-12158
▁imibare	-12159
▁ruhabwa	-12160
izitonora	-12161
▁CYINJIJE	-12162
▁INNOCENT	-12163
▁MUGOROBA	-12164
▁MWAMBARO	-12165
▁TEKINIKE	-12166
▁Yakiniye	-12167
▁dushyize	-12168
▁guhuriza	-12169
▁impapuro	-12170
▁installe	-12171
GARAGAMBYO	-12172
UMUNYEMARI	-12173
▁BAGOMBAGA	-12174
▁BISHYIRWA	-12175
▁BUILDINGS	-12176
▁IRUSHANWA	-12177
▁RISHOBORA	-12178
▁RISUZUMWA	-12179
▁UKAKIBONA	-12180
▁YATUNGUWE	-12181
▁bayifashe	-12182
▁installed	-12183
▁inyongera	-12184
▁mpungenge	-12185
▁AMASHYAMBA	-12186
▁AMATANGAZO	-12187
▁ANAKORERWA	-12188
▁ANYAKIRIRA	-12189
▁APPRECIATE	-12190
▁ARABYEMERA	-12191
▁ARAMFUBIKA	-12192
▁ARAMUFASHA	-12193
▁ARARANGIYE	-12194
▁ARATANGIYE	-12195
▁ASTRONAUTS	-12196
▁ATAMUKUNDA	-12197
▁ATANGIRIYE	-12198
▁ATAZONGERA	-12199
pin	-12200
▁IG	-12201
▁IZ	-12202
TUKU	-12203
ZOVU	-12204
guza	-12205
yiza	-12206
▁ipa	-12207
IMPIN	-12208
mwaka	-12209
pindu	-12210
▁BATU	-12211
▁BUTO	-12212
▁IGNA	-12213
▁TIMO	-12214
guzaho	-12215
imitwe	-12216
ubumwe	-12217
▁BWAZO	-12218
▁GUHEM	-12219
▁NTIBE	-12220
▁NZOVU	-12221
▁Ndayi	-12222
▁RYOSE	-12223
▁TIMOT	-12224
▁YAKEN	-12225
▁ryiza	-12226
BARUTSE	-12227
IMPINJA	-12228
UMUTUKU	-12229
pinduka	-12230
▁GUSHYI	-12231
▁IGNACE	-12232
▁KUZANA	-12233
▁Marvin	-12234
▁TIMOTH	-12235
▁UBANZA	-12236
▁biriya	-12237
▁kugura	-12238
▁ninjya	-12239
▁rurimi	-12240
GURISHWA	-12241
sezeraho	-12242
▁AGAHUZA	-12243
▁BONYINE	-12244
▁CYASHIN	-12245
▁KUGENDA	-12246
▁TIMOTHY	-12247
▁YIGISHA	-12248
▁bitanga	-12249
anaguzaho	-12250
yoborwamo	-12251
▁IZIRENGA	-12252
▁UMUBITSI	-12253
▁YAKENNYE	-12254
▁badafite	-12255
▁bigatuma	-12256
▁byatumye	-12257
▁iparitse	-12258
▁kibarura	-12259
▁kumuhuza	-12260
▁kuzikora	-12261
▁mategeko	-12262
▁BATUBWIYE	-12263
▁BAZIRANYE	-12264
▁CYASHINZE	-12265
▁GUHEMBERA	-12266
▁RYABEREYE	-12267
▁YABASHIJE	-12268
▁YIBARUTSE	-12269
▁birushaho	-12270
▁bitarenze	-12271
▁cyageraga	-12272
▁impinduka	-12273
▁kumenyaho	-12274
▁terambere	-12275
▁AYEGUKANYE	-12276
▁AZABYICUZA	-12277
▁AZAMUMENYA	-12278
▁AZIBUKIRWA	-12279
▁Abinyujije	-12280
▁Amafaranga	-12281
▁Appreciate	-12282
▁BADUTSINDA	-12283
▁BAGARAGAZA	-12284
▁BAGERAGEJE	-12285
▁BAKABURANA	-12286
▁BAKAKIMARA	-12287
▁BAKAZISHYU	-12288
▁BAKORESHWA	-12289
▁BANGIRIJWE	-12290
▁BATAKIBANA	-12291
▁BATEKEREZA	-12292
▁BAVUGIRIJE	-12293
▁BAYIKENEYE	-12294
▁BAZAHEMBWA	-12295
▁BAZAKOMEZA	-12296
▁BAZAYABORA	-12297
▁BAZIBUKIRA	-12298
▁BIGARAGAZA	-12299
ABI	-12300
TES	-12301
URI	-12302
LLED	-12303
ZAHO	-12304
yiye	-12305
▁Aya	-12306
▁BAS	-12307
▁GRO	-12308
▁IRE	-12309
▁MYA	-12310
ITEKA	-12311
MBAYE	-12312
RANGO	-12313
RATES	-12314
URICE	-12315
banda	-12316
ganje	-12317
▁KITI	-12318
▁NIBA	-12319
▁Sadi	-12320
▁buto	-12321
GUZAHO	-12322
▁BASKE	-12323
▁BONGO	-12324
▁IHERA	-12325
▁Union	-12326
▁rwari	-12327
▁uduce	-12328
▁yakin	-12329
MIRATES	-12330
wiganje	-12331
▁BASKET	-12332
▁GROSSI	-12333
▁HAGIRA	-12334
▁Jeanne	-12335
▁MYAMBA	-12336
▁Riyadh	-12337
▁ZIKORA	-12338
▁gutora	-12339
▁ikorwa	-12340
▁kenshi	-12341
▁ubanza	-12342
▁yatege	-12343
GARUBUGA	-12344
▁BONGOLE	-12345
▁HAKOZWE	-12346
▁INGANZO	-12347
▁INTUMWA	-12348
▁KINGANA	-12349
▁MAURICE	-12350
▁RUHABWA	-12351
▁Umunara	-12352
▁YAFASHE	-12353
▁YAMBAYE	-12354
▁amfashe	-12355
▁ataramu	-12356
▁iboneke	-12357
▁kugenda	-12358
▁yagutse	-12359
▁yakinwe	-12360
ANAGUZAHO	-12361
▁BADAHUJE	-12362
▁BASKETBA	-12363
▁EMIRATES	-12364
▁IBIRANGO	-12365
▁IRENGERO	-12366
▁KAYISIRE	-12367
▁MUKENEYE	-12368
▁babifata	-12369
▁byambura	-12370
▁gishyira	-12371
▁igisonga	-12372
▁kwibanda	-12373
▁rwiganje	-12374
▁yanageze	-12375
HANAGUZAHO	-12376
UBWUGARIZI	-12377
ibikoresho	-12378
▁BASKETBAL	-12379
▁Breakfast	-12380
▁INSTALLED	-12381
▁IREGUKANA	-12382
▁NARINGIYE	-12383
▁ihanganye	-12384
▁irushanwa	-12385
▁kurushaho	-12386
▁yagendaga	-12387
▁yasinyiye	-12388
▁yategetse	-12389
▁BASKETBALL	-12390
▁BIHURIRANA	-12391
▁BIRMINGHAM	-12392
▁BITANAVAMO	-12393
▁BITEKEREZO	-12394
▁BIYISHINJA	-12395
▁BIZAKOMEZA	-12396
▁BUGARAGAZA	-12397
▁BURAHARARI	-12398
▁BWATANGAJE	-12399
ako	-12400
mun	-12401
BARA	-12402
YABA	-12403
mije	-12404
▁LOG	-12405
▁NKE	-12406
IRITI	-12407
UMURA	-12408
amina	-12409
shita	-12410
▁MUBI	-12411
▁biti	-12412
▁ujya	-12413
YABARO	-12414
Zamina	-12415
hamije	-12416
munsha	-12417
▁ABAYE	-12418
▁IREBA	-12419
▁iguha	-12420
▁urimo	-12421
▁IBYIHE	-12422
▁ISRAEL	-12423
▁Karere	-12424
▁MABARA	-12425
▁MIBARE	-12426
▁MUBIZI	-12427
▁NDENDE	-12428
▁RURIMI	-12429
▁UBUSHI	-12430
▁YATOWE	-12431
▁cyitwa	-12432
▁ikamba	-12433
▁ishaje	-12434
▁kibuga	-12435
▁mugabo	-12436
▁nucika	-12437
ABARENGA	-12438
UMURAYON	-12439
VUGURURA	-12440
ingurane	-12441
▁AZIGERA	-12442
▁BAGENZI	-12443
▁IFIRITI	-12444
▁UKABONA	-12445
▁bambara	-12446
▁murongo	-12447
▁nshinja	-12448
karujanga	-12449
ubutabera	-12450
▁BASIGAJE	-12451
▁BEREKEZA	-12452
▁IBYIHEBE	-12453
▁IMYABARO	-12454
▁NDABYARA	-12455
▁TWASHOYE	-12456
▁UBUSHITA	-12457
▁Ubushita	-12458
▁bazakora	-12459
▁ikibondo	-12460
▁mumunsha	-12461
▁twabasha	-12462
▁yahamije	-12463
▁ASOBANURA	-12464
▁BAMPORIKI	-12465
▁YANDITSWE	-12466
▁YATEGETSE	-12467
▁intambara	-12468
▁kuyasinya	-12469
▁narihebye	-12470
▁yibarutse	-12471
▁BWISANZURE	-12472
▁BWISUMBUYE	-12473
▁BYAVUGWAGA	-12474
▁Basketball	-12475
▁Bavugirije	-12476
▁Birmingham	-12477
▁Bwongereza	-12478
▁Byatangiye	-12479
▁CHRISTELLA	-12480
▁CYABASABYE	-12481
▁Christella	-12482
▁Communaute	-12483
▁Cyoherejwe	-12484
▁DEMOKARASI	-12485
▁DUHANGANYE	-12486
▁Demokarasi	-12487
▁EXHIBITION	-12488
▁Exhibition	-12489
▁GIHINDUTSE	-12490
▁GISHINGIYE	-12491
▁GISOBANURA	-12492
▁GUCAKIRANA	-12493
▁GUHARANIRA	-12494
▁GUKURIKIRA	-12495
▁GUSHAKISHI	-12496
▁GUSHYIRAMO	-12497
▁GUSHYIRAYO	-12498
▁GUSOBANURA	-12499
CHO	-12500
IZA	-12501
Twa	-12502
▁St	-12503
CHOE	-12504
GAHO	-12505
GORO	-12506
HAGO	-12507
REHO	-12508
YAHO	-12509
koro	-12510
▁FRE	-12511
▁Ino	-12512
iteka	-12513
▁BIRO	-12514
▁NIKI	-12515
▁Nyan	-12516
▁TALI	-12517
▁guse	-12518
▁urwo	-12519
CHOEUR	-12520
DERICK	-12521
IKINTU	-12522
INTEBE	-12523
mikoro	-12524
▁ARAZA	-12525
▁BAKWI	-12526
▁CYOSE	-12527
▁MVUZE	-12528
▁UGERA	-12529
▁bajye	-12530
▁byafa	-12531
▁byege	-12532
▁cyabu	-12533
▁kwize	-12534
▁rundi	-12535
▁umuma	-12536
▁yindi	-12537
INKENDE	-12538
▁AHUMYE	-12539
▁BIRORI	-12540
▁HABAHO	-12541
▁IKORWA	-12542
▁MAKURU	-12543
▁Nyanza	-12544
▁RUHAGO	-12545
▁TALIKI	-12546
▁YAGERA	-12547
▁arapfa	-12548
▁byafas	-12549
▁gusesa	-12550
▁makuru	-12551
▁mirimo	-12552
▁rugiye	-12553
abarenga	-12554
▁AMFASHE	-12555
▁CADETTE	-12556
▁Powered	-12557
▁amikoro	-12558
▁bwihuse	-12559
▁gikorwa	-12560
▁ibirori	-12561
▁umumaro	-12562
▁BAREMEWE	-12563
▁NIKIGERA	-12564
▁RIGAMIJE	-12565
▁UMUHUNGU	-12566
▁YAGERAMO	-12567
▁badahuza	-12568
▁gikomeje	-12569
▁kwizerwa	-12570
▁werekeje	-12571
▁yateguye	-12572
URUBYIRUKO	-12573
ivanguramo	-12574
▁BAKWIZERA	-12575
▁FREDERICK	-12576
▁Inovasiyo	-12577
▁KURUSHAHO	-12578
▁USHINGIYE	-12579
▁miiliyari	-12580
▁teritwari	-12581
▁yanganaga	-12582
▁yisumbuye	-12583
▁zishyurwa	-12584
Abagalatiya	-12585
▁GUSOBANUYE	-12586
▁GUSOHOKERA	-12587
▁GUTEGEREZA	-12588
▁Guverinoma	-12589
▁HAKORESHWA	-12590
▁HANYUZWAMO	-12591
▁HASHINGIWE	-12592
▁IBANZIRIZA	-12593
▁IBIKORESHO	-12594
▁IBINYUJIJE	-12595
▁IBISHYIMBO	-12596
▁ICYEREKEZO	-12597
▁IDATSINZWE	-12598
▁IGITANGAZA	-12599
my	-12600
Isi	-12601
VANA	-12602
goma	-12603
gowe	-12604
yaho	-12605
▁ADE	-12606
▁BAH	-12607
▁Eme	-12608
▁INE	-12609
▁PON	-12610
▁nsa	-12611
▁rwu	-12612
▁BIGU	-12613
▁HARU	-12614
▁MANA	-12615
▁Mamy	-12616
▁NARA	-12617
▁Nene	-12618
▁UMUJ	-12619
▁YINE	-12620
▁bira	-12621
▁mufu	-12622
▁nayo	-12623
VANAMO	-12624
▁ADELE	-12625
▁PERRY	-12626
▁Times	-12627
▁avuze	-12628
▁azabi	-12629
▁hagwa	-12630
▁ibizi	-12631
▁nsaza	-12632
▁ugera	-12633
abahari	-12634
▁BIGEZE	-12635
▁BIGOYE	-12636
▁BISABA	-12637
▁Emeran	-12638
▁HARUNA	-12639
▁Ingoma	-12640
▁abitwa	-12641
▁birori	-12642
▁bitanu	-12643
▁mufuka	-12644
▁yagowe	-12645
REBEREYE	-12646
▁GATSIKO	-12647
▁GISHIZE	-12648
▁Ngombwa	-12649
▁UBUFANA	-12650
▁bubunga	-12651
▁mubyeyi	-12652
▁umufana	-12653
▁umukozi	-12654
Itumanaho	-12655
▁ASIMBURA	-12656
▁BAHERUKA	-12657
▁BAVANAMO	-12658
▁BAYIGIYE	-12659
▁BIGUMURA	-12660
▁BYUMWERU	-12661
▁Bizagira	-12662
▁NARABUZE	-12663
▁NYAMUNTU	-12664
▁Nahereye	-12665
▁UMUJINYA	-12666
▁akekwaho	-12667
▁bakunzwe	-12668
▁biragoye	-12669
▁byigenga	-12670
▁gusohoke	-12671
▁kuzatuma	-12672
▁urugamba	-12673
ABASHINZWE	-12674
UBUSHOBOZI	-12675
▁BATARENGA	-12676
▁INTAMBARA	-12677
▁IRAKOMEYE	-12678
▁YATUNGUYE	-12679
▁bagahabwa	-12680
▁ibifitiye	-12681
▁rwugariye	-12682
▁ABASHYITSI	-12683
▁BAYIYOBOYE	-12684
▁BYANATUMYE	-12685
▁Conference	-12686
▁IKAGUFASHA	-12687
▁IKEMERERWA	-12688
▁IKIGAMIJWE	-12689
▁ILDEPHONSE	-12690
▁IMBOGAMIZI	-12691
▁IMENYEKANE	-12692
▁IMPAGARARA	-12693
▁IMPUNGENGE	-12694
▁IMYITEGURO	-12695
▁INNOVATION	-12696
▁INSHINGANO	-12697
▁IRASINGIZA	-12698
▁IRATEGANYA	-12699
IGA	-12700
JWI	-12701
THE	-12702
The	-12703
HANO	-12704
HANGO	-12705
mbaye	-12706
▁BITI	-12707
▁Mana	-12708
▁Mina	-12709
▁NIHO	-12710
▁ANDRO	-12711
▁APPLE	-12712
▁CYABO	-12713
▁MAJWI	-12714
▁TWABA	-12715
▁ibera	-12716
▁mvuze	-12717
▁ntiba	-12718
▁nyuba	-12719
▁ABONYE	-12720
▁ALBERT	-12721
▁ANDROI	-12722
▁BAGIZE	-12723
▁BIBAYE	-12724
▁BIRIYA	-12725
▁Domino	-12726
▁Hamaze	-12727
▁KAYIGI	-12728
▁MABOKO	-12729
▁UREBYE	-12730
▁kubana	-12731
▁mukuru	-12732
▁wagiye	-12733
▁yasore	-12734
▁ANDROID	-12735
▁IBIHANO	-12736
▁IKINIGA	-12737
▁MUBYEYI	-12738
▁MUHANGA	-12739
▁UMHANZI	-12740
▁bahinzi	-12741
▁kigizwe	-12742
▁muhango	-12743
▁nitwara	-12744
▁nyubako	-12745
▁yafashe	-12746
▁yambaye	-12747
▁BABIFITE	-12748
▁BANAFITE	-12749
▁Theogene	-12750
▁UMUHANGO	-12751
▁ZIKENEWE	-12752
▁azahabwa	-12753
▁bahisemo	-12754
▁bizazana	-12755
▁ntibamwe	-12756
▁yasoreje	-12757
Igisingizo	-12758
SHINGIYEHO	-12759
▁BAHATANYE	-12760
▁KUMUBYIGA	-12761
▁MIILIYARI	-12762
▁Twashakaa	-12763
▁bibumbuye	-12764
▁bifitanye	-12765
▁rubyiniro	-12766
Imiyoborere	-12767
ubugiraneza	-12768
▁COMMUNAUTE	-12769
▁CONFERENCE	-12770
▁ISESENGURA	-12771
▁ITANDUKANE	-12772
▁IVUGURURWA	-12773
▁IYISUMBUYE	-12774
▁IZANAHEMBA	-12775
▁Ildephonse	-12776
▁Irasingiza	-12777
▁KANYANGIRA	-12778
▁KAYISUBIJE	-12779
▁KIDAHUMEKA	-12780
▁KIGENZURWA	-12781
▁KIKAGARUKA	-12782
▁KIKAZABERA	-12783
▁KIMIHURURA	-12784
▁KINYAMWUGA	-12785
▁KIZAGARUKA	-12786
▁KIZOBEREYE	-12787
▁KONGERWAMO	-12788
▁KUBESHWAHO	-12789
▁KUBISHYIRA	-12790
▁KUGANIRAHO	-12791
▁KUGURISHWA	-12792
▁KUMENYESHA	-12793
▁KUMUREKURA	-12794
▁KUREBERAHO	-12795
▁KUTIMVANGA	-12796
▁KUWUSUBIZA	-12797
▁KWISANZURA	-12798
▁KWITIRIRWA	-12799
▁ay	-12800
BUSA	-12801
HIGO	-12802
SAZA	-12803
ZEYE	-12804
mezi	-12805
ÏSSA	-12806
▁Uwo	-12807
▁isa	-12808
IBIGO	-12809
kunga	-12810
rango	-12811
▁Kane	-12812
▁STAR	-12813
▁WABI	-12814
▁niki	-12815
▁wabi	-12816
FABUSA	-12817
▁IKENE	-12818
▁IKIZA	-12819
▁Mungu	-12820
▁NSAZA	-12821
▁amezi	-12822
▁ryake	-12823
▁BAFATA	-12824
▁BAGUYE	-12825
▁INGABO	-12826
▁KARERE	-12827
▁KIBUGA	-12828
▁MIHIGO	-12829
▁RAÏSSA	-12830
▁RISABA	-12831
▁SHUSHO	-12832
▁URWIBU	-12833
▁YIZEYE	-12834
▁bahuje	-12835
▁bayibe	-12836
▁bumaze	-12837
▁nanone	-12838
▁ntajya	-12839
▁tutavu	-12840
▁ukumva	-12841
▁wabiyi	-12842
▁yaradu	-12843
RIRIMBWA	-12844
imyitozo	-12845
mbwiraga	-12846
▁Bivugwa	-12847
▁IKENERA	-12848
▁IZAHITA	-12849
▁RULINDO	-12850
▁RWINSHI	-12851
▁UMUBANA	-12852
▁Umubare	-12853
▁WITABYE	-12854
▁agaruka	-12855
▁ikenera	-12856
▁inkunga	-12857
▁ishusho	-12858
▁kumwica	-12859
▁myitozo	-12860
▁ryakeye	-12861
▁twagiye	-12862
▁AHIGITSE	-12863
▁Abakobwa	-12864
▁BATAGERA	-12865
▁BYAKORWA	-12866
▁IBARIZWA	-12867
▁IMFABUSA	-12868
▁KWIRENGA	-12869
▁UWATUMYE	-12870
▁anangiza	-12871
▁ibirango	-12872
▁kudasoza	-12873
▁kuganira	-12874
▁nikigera	-12875
▁Bamporiki	-12876
▁COSTERTON	-12877
▁KUMENYAHO	-12878
▁URWIBUTSO	-12879
▁ntibivemo	-12880
▁yamuritse	-12881
▁ARAMUSHAKA	-12882
▁GUTEKEREZA	-12883
▁Kanyangira	-12884
▁Kimihurura	-12885
▁Kitabiriwe	-12886
▁MACAKUBIRI	-12887
▁MARUSHANWA	-12888
▁MILIMETERO	-12889
▁MINISITERI	-12890
▁MUTEKEREZA	-12891
▁MYAMBARIRE	-12892
▁Minisiteri	-12893
▁NAYISHYIZE	-12894
▁NDABAKUNZE	-12895
▁NDAGUKUNDA	-12896
▁NDAMUKUNDA	-12897
▁NDAYIKUNDA	-12898
▁NGENZURAMI	-12899
MY	-12900
DURA	-12901
HAME	-12902
VUZI	-12903
hano	-12904
higa	-12905
vura	-12906
vuzi	-12907
▁HAY	-12908
▁IVU	-12909
▁MVU	-12910
AHUZA	-12911
KINWE	-12912
▁IMVU	-12913
▁MAMY	-12914
▁UJYA	-12915
▁WABE	-12916
▁baje	-12917
▁naje	-12918
GEZEHO	-12919
IMITWE	-12920
▁BITWA	-12921
▁MVUKA	-12922
▁MVURA	-12923
▁UTARI	-12924
▁bwaje	-12925
▁igiye	-12926
▁mvura	-12927
▁uhiga	-12928
ITSINDA	-12929
WANDURA	-12930
YANYUZE	-12931
▁BITATU	-12932
▁BITERO	-12933
▁BIZIMA	-12934
▁HATOWE	-12935
▁HAZAZA	-12936
▁IMVUNE	-12937
▁IVUMBI	-12938
▁MATEKA	-12939
▁RYARYO	-12940
▁Siporo	-12941
▁WAMARA	-12942
▁bibiri	-12943
RANYWAGA	-12944
abahinzi	-12945
▁AHAMAZE	-12946
▁AKAGERA	-12947
▁Igipimo	-12948
▁UBUVUZI	-12949
▁Umukozi	-12950
▁YAKINWE	-12951
▁ibihano	-12952
▁imipira	-12953
▁ryinshi	-12954
▁ubuvuzi	-12955
▁ukubona	-12956
▁BENGHAZI	-12957
▁BYANYUZE	-12958
▁Félicien	-12959
▁Hakizima	-12960
▁ICYAKORA	-12961
▁KIREKIRE	-12962
▁KWANDURA	-12963
▁Ndashaje	-12964
▁WABERAGA	-12965
▁byahanwa	-12966
▁kubivuga	-12967
▁seigneur	-12968
▁BABARIRWA	-12969
▁HASHINZWE	-12970
▁TWAREMEWE	-12971
▁UBUTUMIRE	-12972
▁bugenzuzi	-12973
▁ihagarare	-12974
▁ikoreramo	-12975
▁utoragura	-12976
▁BAGASHYIRA	-12977
▁BARABABAYE	-12978
▁NITUBISOMA	-12979
▁NIYIBAGIWE	-12980
▁NIYITEGEKA	-12981
▁NIYONSHUTI	-12982
▁NTACYABUZE	-12983
▁NTACYATUMA	-12984
▁NTIBAMWEME	-12985
▁NTIBYABAYE	-12986
▁NTICYAVAMO	-12987
▁NTIRWIKOZA	-12988
▁NTITUMENYE	-12989
▁NTIZAHEMBA	-12990
▁Ndabyibuka	-12991
▁Ndagukunda	-12992
▁Ndayikunda	-12993
▁Niyitegeka	-12994
▁Niyonshuti	-12995
▁POROGARAMU	-12996
▁PROCEEDING	-12997
▁REPUBULIKA	-12998
▁RIGARAGAZA	-12999
HIO	-13000
HIGA	-13001
HUHA	-13002
HURA	-13003
kirwa	-13004
▁APFA	-13005
▁CHIO	-13006
▁NAHU	-13007
▁SHYA	-13008
▁ZABO	-13009
▁biva	-13010
▁inka	-13011
▁kwan	-13012
▁nahu	-13013
MIKORO	-13014
▁CYAYO	-13015
▁CYAZO	-13016
▁FRANK	-13017
▁GUPFA	-13018
▁KUGWA	-13019
▁NDIMO	-13020
▁POWER	-13021
▁Sissi	-13022
▁UHIGA	-13023
ihuriro	-13024
▁AMBERA	-13025
▁akanyi	-13026
▁bushya	-13027
▁guhura	-13028
▁inkuru	-13029
▁intege	-13030
▁kigali	-13031
▁kubaza	-13032
▁kwandu	-13033
▁AMIKORO	-13034
▁AMUBERA	-13035
▁AZASURA	-13036
▁BAGENDA	-13037
▁GITANDA	-13038
▁IBIHUHA	-13039
▁UGAMIJE	-13040
▁URWANGO	-13041
▁agahuza	-13042
▁azigera	-13043
▁ihagaze	-13044
▁ihumure	-13045
▁kubazwa	-13046
▁ATANGIJE	-13047
▁GUKOMEZA	-13048
▁ITANGIYE	-13049
▁NAHURAGA	-13050
▁RYATANZE	-13051
▁SHYASHYA	-13052
▁YIBUKIJE	-13053
▁abashaka	-13054
▁bamuhuza	-13055
▁biyemeza	-13056
▁gukomeye	-13057
▁kwandura	-13058
▁nahuraga	-13059
ubushobozi	-13060
▁BASHAKAGA	-13061
▁BINANGIZE	-13062
▁KUBAFASHA	-13063
▁MPUNGENGE	-13064
▁Muhanguzi	-13065
▁Umutekano	-13066
▁iherereye	-13067
▁AGITANGAZA	-13068
▁BAFUNGURWA	-13069
▁BAZAYOBORA	-13070
▁GUSHYIRAHO	-13071
▁IZARANGIRA	-13072
▁Ishoramari	-13073
▁NDASHIMIRA	-13074
▁RIKAMUBANA	-13075
▁RISANZWEHO	-13076
▁RUGENZURWA	-13077
▁RUKORESHWA	-13078
▁RUTOROSHYE	-13079
▁RYASHYIZWE	-13080
▁RYEREKANYE	-13081
▁RYUBAKANYE	-13082
▁Repubulika	-13083
▁SINABYEMEZ	-13084
▁SUPIRIYANI	-13085
▁Sipiriyani	-13086
▁Supiriyani	-13087
▁TUBIKEMURA	-13088
▁TUKANABAHA	-13089
▁TUTAVUGANA	-13090
▁TWARANGIJE	-13091
▁TWAYIBONYE	-13092
▁TWEREKANYE	-13093
▁TWIBAGIRWE	-13094
▁UBUKANGURA	-13095
▁UBWUGARIZI	-13096
▁UGUTSINDWA	-13097
▁UKANAMENYA	-13098
▁UMUNYEMARI	-13099
ARC	-13100
DES	-13101
▁ES	-13102
GANI	-13103
KUTA	-13104
ZITO	-13105
▁BIG	-13106
▁Ese	-13107
▁Hay	-13108
▁Pon	-13109
ENDES	-13110
SAMBA	-13111
ibiro	-13112
▁Bati	-13113
▁Huye	-13114
▁MIKE	-13115
▁NAJE	-13116
▁NICE	-13117
▁aran	-13118
▁mazi	-13119
▁waje	-13120
▁MURWA	-13121
▁NZANI	-13122
▁Paula	-13123
▁cyabo	-13124
▁cyayo	-13125
▁ikora	-13126
▁yabwo	-13127
ABAFITE	-13128
▁ABASHA	-13129
▁GUCAMO	-13130
▁ISABYE	-13131
▁KIZITO	-13132
▁KURUTA	-13133
▁MENDES	-13134
▁MUGABO	-13135
▁PHANNY	-13136
▁RAPORO	-13137
▁RUKUTA	-13138
▁TEGEKO	-13139
▁ZIGIZE	-13140
▁bageze	-13141
▁bugoye	-13142
▁gusaba	-13143
▁itorwa	-13144
▁AHAKANA	-13145
▁Agakiza	-13146
▁BAGOMBA	-13147
▁INAMAZE	-13148
▁Inganzo	-13149
▁Itegeko	-13150
▁Kumenya	-13151
▁MASAMBA	-13152
▁NDUZUYE	-13153
▁UKUBONA	-13154
▁UMUGANI	-13155
▁akomeye	-13156
▁amasoko	-13157
▁gakondo	-13158
▁kwemera	-13159
umunezero	-13160
▁BIYITAHO	-13161
▁IGISONGA	-13162
▁Nyamuntu	-13163
▁UBUFASHA	-13164
▁UDUKUNDA	-13165
▁UKWIHAZA	-13166
▁badahuje	-13167
▁banafite	-13168
▁cyumweru	-13169
▁kuruhuka	-13170
▁nabonaga	-13171
IBYAHARIWE	-13172
▁BYASHYIZE	-13173
▁CYAGERAHO	-13174
▁DUSHOBORA	-13175
▁Henriette	-13176
▁bagiranye	-13177
▁ibisubizo	-13178
▁kumubwira	-13179
▁ukayibaza	-13180
▁umusasuro	-13181
amakompanyi	-13182
shyarugamba	-13183
▁BYATANGAJE	-13184
▁Innovation	-13185
▁UMUNYEZAMU	-13186
▁UMWIHERERO	-13187
▁UNDERSTAND	-13188
▁URAMUKUNZE	-13189
▁USANGANYWE	-13190
▁UTAMWUBAHA	-13191
▁UTITABWAHO	-13192
▁UZARANGIRA	-13193
▁Ubwugarizi	-13194
▁Umwamikazi	-13195
▁Urubyiruko	-13196
▁WAMUGIRIYE	-13197
▁WAVUGANAGA	-13198
▁WEGUKANYWE	-13199
rwaya	-13200
▁BIVA	-13201
▁FIRE	-13202
▁Just	-13203
▁Roho	-13204
▁SITE	-13205
▁gace	-13206
▁niba	-13207
BURIWE	-13208
meraga	-13209
▁ABAYO	-13210
▁BIRWA	-13211
▁Byari	-13212
▁IBARA	-13213
▁IGIYE	-13214
▁ISOZA	-13215
▁Murwa	-13216
▁Nteko	-13217
▁Sally	-13218
▁TIMES	-13219
▁asaga	-13220
▁cyazo	-13221
▁cyose	-13222
GEZWAHO	-13223
▁ACCEPT	-13224
▁ASANGA	-13225
▁BIGIYE	-13226
▁GUSESA	-13227
▁HAGIYE	-13228
▁NAVUGA	-13229
▁WAGIYE	-13230
▁YAMBWI	-13231
▁abasha	-13232
▁bibuga	-13233
▁yateye	-13234
AGATSIKO	-13235
▁AHAZAZA	-13236
▁BAKEKWA	-13237
▁BAVUGWA	-13238
▁BWAMAZE	-13239
▁GUKORWA	-13240
▁GUTINDA	-13241
▁KIRUMBU	-13242
▁MURENGE	-13243
▁Muhanga	-13244
▁NSHINJA	-13245
▁RICYAKA	-13246
▁YAMENYE	-13247
▁abagabo	-13248
▁babasha	-13249
▁bingana	-13250
▁cyanjye	-13251
▁umubana	-13252
▁wajyaga	-13253
▁yahunze	-13254
AMADOLARI	-13255
Abadepite	-13256
IBIRARANE	-13257
amadolari	-13258
▁ABABYEYI	-13259
▁BABURIWE	-13260
▁BAHEMBWA	-13261
▁BAKAGERA	-13262
▁GUKEMURA	-13263
▁GUSUZUMA	-13264
▁KAYITABA	-13265
▁Nyarwaya	-13266
▁RUPAPURO	-13267
▁arwanywa	-13268
▁berekeza	-13269
▁bitarava	-13270
▁ingurane	-13271
▁BIGERWAHO	-13272
▁BUGENZUZI	-13273
▁Mbeshwaho	-13274
▁agaragaza	-13275
▁atakiniye	-13276
▁rikorwamo	-13277
▁shoramari	-13278
▁yamufasha	-13279
▁BUTARAFATA	-13280
▁BWONGEREZA	-13281
▁BYATUNGUYE	-13282
▁IBURANISHA	-13283
▁IGASHYIRWA	-13284
▁KUBUYOBOKA	-13285
▁KUMUKURIKI	-13286
▁SIPIRIYANI	-13287
▁WIYEGURIYE	-13288
▁YABABUJIJE	-13289
▁YADUKORERA	-13290
▁YAGARAGAYE	-13291
▁YAGARUKAGA	-13292
▁YAKEMURAGA	-13293
▁YAKINIRAGA	-13294
▁YAKORERAGA	-13295
▁YAKUBITIWE	-13296
▁YAMBWIRAGA	-13297
▁YAMUBEREYE	-13298
▁YANGANYIJE	-13299
▁BACA	-13300
▁MABI	-13301
▁MALI	-13302
▁MAZI	-13303
▁NINI	-13304
▁amwe	-13305
▁site	-13306
▁zuba	-13307
UFASHE	-13308
▁HAGWA	-13309
▁RYAYO	-13310
▁iguhe	-13311
▁nkaca	-13312
▁BARIYA	-13313
▁KIBERA	-13314
▁Kubaka	-13315
▁YABAGA	-13316
▁bigoye	-13317
▁bukaba	-13318
▁yaguha	-13319
▁ABAGIRA	-13320
▁NITWARA	-13321
▁RIFASHA	-13322
▁akareba	-13323
▁gishize	-13324
▁mukunda	-13325
▁nkiriho	-13326
▁ukureba	-13327
▁zabasha	-13328
UBUTUMIRE	-13329
imishinga	-13330
▁BAKUNZWE	-13331
▁NIRIMARA	-13332
▁RIGACIKA	-13333
▁TWABASHA	-13334
▁Twabonye	-13335
▁asimbura	-13336
▁atangije	-13337
▁baburiwe	-13338
▁politiki	-13339
▁ugezweho	-13340
▁AKARWANYA	-13341
▁BIGIZWEMO	-13342
▁IKORERAMO	-13343
▁KWINGINGA	-13344
▁WARANGIYE	-13345
▁asobanura	-13346
▁biganisha	-13347
▁ifashijwe	-13348
▁ikakubera	-13349
▁uyikeneye	-13350
▁yatunguwe	-13351
ABAGALATIYA	-13352
▁BASEZERERA	-13353
▁BAYAKENEYE	-13354
▁YARAKINAGA	-13355
▁YARAMUHAYE	-13356
▁YAREBEREYE	-13357
▁YARIRIMBYE	-13358
▁YASHYIRAGA	-13359
▁YASHYIRAMO	-13360
▁YASUBIYEMO	-13361
▁YAYIKOREYE	-13362
▁YAZAMUBERA	-13363
▁YEGUKANAGA	-13364
▁YEREKEJEMO	-13365
▁YIFASHISHA	-13366
▁YISHYURAGA	-13367
▁YOHEREREZA	-13368
▁YUGARIYEMO	-13369
▁Yagaragaje	-13370
▁Yagerageje	-13371
▁Yashyizeho	-13372
▁ZARIRIMBWE	-13373
▁ZINYURANYE	-13374
▁ZISHAKISHI	-13375
▁ZISIGARANA	-13376
▁abashyitsi	-13377
▁abayirangi	-13378
▁adateganya	-13379
▁agitangaza	-13380
▁ahagarutse	-13381
▁amahugurwa	-13382
▁amashyamba	-13383
▁amatangazo	-13384
▁anakorerwa	-13385
▁aniyandika	-13386
▁anyakirira	-13387
▁arabyemera	-13388
▁aramfubika	-13389
▁aramufasha	-13390
▁aramushaka	-13391
▁ararangiye	-13392
▁aratangiye	-13393
▁astronauts	-13394
▁atamukunda	-13395
▁atangiriye	-13396
▁atazongera	-13397
▁ayegukanye	-13398
▁azabyicuza	-13399
▁azamumenya	-13400
▁azibukirwa	-13401
▁badutsinda	-13402
▁bafungurwa	-13403
▁bagaragaza	-13404
▁bagashyira	-13405
▁bagerageje	-13406
▁bakaburana	-13407
▁bakakimara	-13408
▁bakoreshwa	-13409
▁bangirijwe	-13410
▁barababaye	-13411
▁basezerera	-13412
▁batakibana	-13413
▁batarayima	-13414
▁batekereza	-13415
▁bayakeneye	-13416
▁bayikeneye	-13417
▁bayiyoboye	-13418
▁bazahembwa	-13419
▁bazakomeza	-13420
▁bazayabora	-13421
▁bazayobora	-13422
▁bazibukira	-13423
▁bigaragaza	-13424
▁bihurirana	-13425
▁bitanavamo	-13426
▁bitekerezo	-13427
▁biyishinja	-13428
▁bizakomeza	-13429
▁bugaragaza	-13430
▁buraharari	-13431
▁butarafata	-13432
▁bwatangaje	-13433
▁bwisanzure	-13434
▁bwisumbuye	-13435
▁byanatumye	-13436
▁byatangaje	-13437
▁byatunguye	-13438
▁byavugwaga	-13439
▁cyabasabye	-13440
▁cyoherejwe	-13441
▁duhanganye	-13442
▁gihindutse	-13443
▁gishingiye	-13444
▁gisobanura	-13445
▁gucakirana	-13446
▁guharanira	-13447
▁gukurikira	-13448
▁gushakishi	-13449
▁gushyiraho	-13450
▁gushyiramo	-13451
▁gushyirayo	-13452
▁gusobanura	-13453
▁gusobanuye	-13454
▁gusohokera	-13455
▁gutegereza	-13456
▁gutekereza	-13457
▁hakoreshwa	-13458
▁hanyuzwamo	-13459
▁hashingiwe	-13460
▁ibanziriza	-13461
▁ibikoresho	-13462
▁ibinyujije	-13463
▁ibishyimbo	-13464
▁iburanisha	-13465
▁icyerekezo	-13466
▁idatsinzwe	-13467
▁igashyirwa	-13468
▁igitangaza	-13469
▁ikagufasha	-13470
▁ikemererwa	-13471
▁ikigamijwe	-13472
▁imbogamizi	-13473
▁imenyekane	-13474
▁impagarara	-13475
▁impungenge	-13476
▁imyiteguro	-13477
▁inshingano	-13478
▁irateganya	-13479
▁isesengura	-13480
▁itandukane	-13481
▁ivugururwa	-13482
▁iyisumbuye	-13483
▁izanahemba	-13484
▁izarangira	-13485
▁kayisubije	-13486
▁kidahumeka	-13487
▁kigenzurwa	-13488
▁kikagaruka	-13489
▁kikazabera	-13490
▁kinyamwuga	-13491
▁kitabiriwe	-13492
▁kizagaruka	-13493
▁kizobereye	-13494
▁kongerwamo	-13495
▁kubeshwaho	-13496
▁kubishyira	-13497
▁kubuyoboka	-13498
▁kuganiraho	-13499
▁kugurishwa	-13500
▁kumenyesha	-13501
▁kumukuriki	-13502
▁kumurekura	-13503
▁kureberaho	-13504
▁kutimvanga	-13505
▁kuwusubiza	-13506
▁kwisanzura	-13507
▁kwitirirwa	-13508
▁macakubiri	-13509
▁marushanwa	-13510
▁milimetero	-13511
▁mutekereza	-13512
▁myambarire	-13513
▁nayishyize	-13514
▁ndabakunze	-13515
▁ndamukunda	-13516
▁ndashimira	-13517
▁nitubisoma	-13518
▁niyibagiwe	-13519
▁ntacyabuze	-13520
▁ntacyatuma	-13521
▁ntibyabaye	-13522
▁nticyavamo	-13523
▁ntirwikoza	-13524
▁ntitumenye	-13525
▁ntizahemba	-13526
▁porogaramu	-13527
▁proceeding	-13528
▁rigaragaza	-13529
▁rikamubana	-13530
▁risanzweho	-13531
▁rugenzurwa	-13532
▁rukoreshwa	-13533
▁rutoroshye	-13534
▁ryashyizwe	-13535
▁ryerekanye	-13536
▁ryubakanye	-13537
▁sinabyemez	-13538
▁tubikemura	-13539
▁tukanabaha	-13540
▁tutavugana	-13541
▁twarangije	-13542
▁twayibonye	-13543
▁twerekanye	-13544
▁twibagirwe	-13545
▁ugutsindwa	-13546
▁ukanamenya	-13547
▁umunyemari	-13548
▁umunyezamu	-13549
▁umwamikazi	-13550
▁umwiherero	-13551
▁understand	-13552
▁uramukunze	-13553
▁usanganywe	-13554
▁utamwubaha	-13555
▁utitabwaho	-13556
▁uzarangira	-13557
▁wamugiriye	-13558
▁wavuganaga	-13559
▁wegukanywe	-13560
▁wiyeguriye	-13561
▁yababujije	-13562
▁yadukorera	-13563
▁yagaragaye	-13564
▁yagarukaga	-13565
▁yakemuraga	-13566
▁yakiniraga	-13567
▁yakoreraga	-13568
▁yakubitiwe	-13569
▁yambwiraga	-13570
▁yamubereye	-13571
▁yanganyije	-13572
▁yarakinaga	-13573
▁yaramuhaye	-13574
▁yarebereye	-13575
▁yaririmbye	-13576
▁yashyiraga	-13577
▁yashyiramo	-13578
▁yasubiyemo	-13579
▁yayikoreye	-13580
▁yazamubera	-13581
▁yegukanaga	-13582
▁yerekejemo	-13583
▁yifashisha	-13584
▁yishyuraga	-13585
▁yoherereza	-13586
▁yugariyemo	-13587
▁zaririmbwe	-13588
▁zinyuranye	-13589
▁zishakishi	-13590
▁zisigarana	-13591
ABANYAFURIKA	-13592
ABANYAMERIKA	-13593
AMAKIMBIRANE	-13594
AMATEGEKOAMA	-13595
Abanyafurika	-13596
Abanyamerika	-13597
ICYISHONGORO	-13598
IKIMENYABOSE	-13599
IMYIDAGADURO	-13600
IVANGURAMOKO	-13601
Icyishongoro	-13602
UMUNYAMERIKA	-13603
Umunyamerika	-13604
YAHAGARIKIYE	-13605
amakimbirane	-13606
amategekoAma	-13607
ikimenyabose	-13608
imyidagaduro	-13609
ivanguramoko	-13610
▁ABANYESHURI	-13611
▁ABAZAHEMBWA	-13612
▁ABIYEGEREZE	-13613
▁ABYIBAGIRWA	-13614
▁AGASUZUGURO	-13615
▁AMAMILIYONI	-13616
▁AMAZEZERANO	-13617
▁AMBASSADORS	-13618
▁ANAMUGEZEHO	-13619
▁ANYAMBARIRA	-13620
▁ARAMWIBWIRA	-13621
▁ARAYISHYURA	-13622
▁ATAZAGARUKA	-13623
▁AYAKURIKIZA	-13624
▁AYISUBIRAMO	-13625
▁AZABIGERAHO	-13626
▁AZASHYIRAHO	-13627
▁Abazahembwa	-13628
▁Ambassadors	-13629
▁Application	-13630
▁BABIMUBWIRA	-13631
▁BADASHOBORA	-13632
▁BAFATANYIJE	-13633
▁BAGIKORESHA	-13634
▁BAGISHAKAHO	-13635
▁BAGWIRIYEMO	-13636
▁BAKABAJYAMO	-13637
▁BAKORESHAGA	-13638
▁BAMENYEREYE	-13639
▁BANDAKAZAGA	-13640
▁BANYARWANDA	-13641
▁BARUKORESHA	-13642
▁BARUSHAKAHO	-13643
▁BARWANIRIRA	-13644
▁BASERUKANYE	-13645
▁BASEZERANYE	-13646
▁BATANGIRAGA	-13647
▁BATAYABONYE	-13648
▁BATAZIRANYE	-13649
▁BATISHOBOYE	-13650
▁BAYIFASHIJE	-13651
▁BAYIKORESHA	-13652
▁BAZAKUNDANA	-13653
▁BIGARAGAZWA	-13654
▁BIKIYONGERA	-13655
▁BIRUMVIKANA	-13656
▁BIZUBUKURWA	-13657
▁BIZUMUREMYI	-13658
▁BUCIRIRITSE	-13659
▁BUZADUFASHA	-13660
▁BWERANGANZO	-13661
▁BWIFASHISHA	-13662
▁BYAKONGERWA	-13663
▁BYATANGAJWE	-13664
▁BYAZAGERAHO	-13665
▁Banyarwanda	-13666
▁Bizumuremyi	-13667
▁Bweranganzo	-13668
▁Byatangajwe	-13669
▁CORONAVIRUS	-13670
▁CYABUGENEWE	-13671
▁CYAGARAGAJE	-13672
▁CYAGARUKAGA	-13673
▁CYAMABABAJE	-13674
▁CYARIKORAGA	-13675
▁CYATAMBUTSE	-13676
▁CYAVUGURURA	-13677
▁CYITABIRIWE	-13678
▁CYITUBEREYE	-13679
▁Coronavirus	-13680
▁GUHANGAMURA	-13681
▁GUHINDURIRA	-13682
▁GUTEKEREZWA	-13683
▁HABIYAMBERE	-13684
▁HAZATANGIRA	-13685
▁Habiyambere	-13686
▁IBIDUKIKIJE	-13687
▁IBIGUSUBIZA	-13688
▁IBIHANGANGE	-13689
▁IBIMENYETSO	-13690
▁IBISINDISHA	-13691
▁IBISOBANURO	-13692
▁IBISOBANUYE	-13693
▁IBYANDITSWE	-13694
▁IBYANGOMBWA	-13695
▁IBYINJIRAMO	-13696
▁IGATSINDIRA	-13697
▁IKIGARAGARA	-13698
▁IKIMENYETSO	-13699
▁IKIYEREKEYE	-13700
▁IMIYOBORERE	-13701
▁INFORMATION	-13702
▁INGENGABIHE	-13703
▁ISHIMANGIRA	-13704
▁ITAGARAGARA	-13705
▁ITANDUKANYE	-13706
▁IZAYITSINDA	-13707
▁Ibidukikije	-13708
▁Ibyanditswe	-13709
▁Ingengabihe	-13710
▁KATUMBAGIYE	-13711
▁KINYARWANDA	-13712
▁KIZENGURUKA	-13713
▁KUBIGENDERA	-13714
▁KUBITANGAZA	-13715
▁KUBYIVUGIRA	-13716
▁KUGERAGEZWA	-13717
▁KUMWOROHERA	-13718
▁KUYIKORESHA	-13719
▁KUZIHINDURA	-13720
▁KWEREKANIRA	-13721
▁KWIGARURIRA	-13722
▁Kinyarwanda	-13723
▁MBIKORESHWA	-13724
▁MPUZANDENGO	-13725
▁MUKARUJANGA	-13726
▁Mukarujanga	-13727
▁NABAMBANYWE	-13728
▁NTIBYAGENDA	-13729
▁NYIRANKENDE	-13730
▁Nabambanywe	-13731
▁Nyirankende	-13732
▁RIZADUFASHA	-13733
▁RIZAYIFASHA	-13734
▁RUZIGAMANZI	-13735
▁RWAKOREWEMO	-13736
▁RWAZISHYIZE	-13737
▁Ruzigamanzi	-13738
▁SANTIMETERO	-13739
▁SIMBIBONERA	-13740
▁Subscribers	-13741
▁TURIRIMBANA	-13742
▁TUTASHOBORA	-13743
▁TWABIKORAHO	-13744
▁TWAKWITWARA	-13745
▁UGASHYIRAMO	-13746
▁UGUHAGARIKA	-13747
▁UGUSHYIRAHO	-13748
▁UHINDURWEHO	-13749
▁UKAYEREKEZA	-13750
▁UKWIYONGERA	-13751
▁UMUGIRANEZA	-13752
▁UMUHEREREZI	-13753
▁UZABAZAMURA	-13754
▁WABIMUSABYE	-13755
▁WASHYINGIYE	-13756
▁WAZAMUTSEHO	-13757
▁YAGARUTSEMO	-13758
▁YAGURISHAGA	-13759
▁YAGURISHIJE	-13760
▁YAHAMAGAJWE	-13761
▁YAMUSIMBUYE	-13762
▁YARAMANUTSE	-13763
▁YARATANGIYE	-13764
▁YATANGIRAGA	-13765
▁YAYOBORWAMO	-13766
▁YBAGARAGAJE	-13767
▁YIYUMVISEMO	-13768
▁YUMVIKANAMO	-13769
▁abanyeshuri	-13770
▁abiyegereze	-13771
▁abyibagirwa	-13772
▁agasuzuguro	-13773
▁amamiliyoni	-13774
▁amazezerano	-13775
▁anamugezeho	-13776
▁anyambarira	-13777
▁aramwibwira	-13778
▁arayishyura	-13779
▁atazagaruka	-13780
▁ayakurikiza	-13781
▁ayisubiramo	-13782
▁azabigeraho	-13783
▁azashyiraho	-13784
▁babimubwira	-13785
▁badashobora	-13786
▁bafatanyije	-13787
▁bagikoresha	-13788
▁bagishakaho	-13789
▁bagwiriyemo	-13790
▁bakabajyamo	-13791
▁bakoreshaga	-13792
▁bamenyereye	-13793
▁bandakazaga	-13794
▁barukoresha	-13795
▁barushakaho	-13796
▁barwanirira	-13797
▁baserukanye	-13798
▁basezeranye	-13799
▁batangiraga	-13800
▁batayabonye	-13801
▁bataziranye	-13802
▁batishoboye	-13803
▁bayifashije	-13804
▁bayikoresha	-13805
▁bazakundana	-13806
▁bigaragazwa	-13807
▁bikiyongera	-13808
▁birumvikana	-13809
▁bizubukurwa	-13810
▁buciriritse	-13811
▁buzadufasha	-13812
▁bwifashisha	-13813
▁byakongerwa	-13814
▁byazageraho	-13815
▁cyabugenewe	-13816
▁cyagaragaje	-13817
▁cyagarukaga	-13818
▁cyamababaje	-13819
▁cyarikoraga	-13820
▁cyatambutse	-13821
▁cyavugurura	-13822
▁cyitabiriwe	-13823
▁cyitubereye	-13824
▁guhangamura	-13825
▁guhindurira	-13826
▁gutekerezwa	-13827
▁hazatangira	-13828
▁ibigusubiza	-13829
▁ibihangange	-13830
▁ibimenyetso	-13831
▁ibisindisha	-13832
▁ibisobanuro	-13833
▁ibisobanuye	-13834
▁ibyangombwa	-13835
▁ibyinjiramo	-13836
▁igatsindira	-13837
▁ikigaragara	-13838
▁ikimenyetso	-13839
▁ikiyerekeye	-13840
▁imiyoborere	-13841
▁information	-13842
▁ishimangira	-13843
▁itagaragara	-13844
▁itandukanye	-13845
▁izayitsinda	-13846
▁katumbagiye	-13847
▁kizenguruka	-13848
▁kubigendera	-13849
▁kubitangaza	-13850
▁kubyivugira	-13851
▁kugeragezwa	-13852
▁kumworohera	-13853
▁kuyikoresha	-13854
▁kuzihindura	-13855
▁kwerekanira	-13856
▁kwigarurira	-13857
▁mbikoreshwa	-13858
▁mpuzandengo	-13859
▁ntibyagenda	-13860
▁rizadufasha	-13861
▁rizayifasha	-13862
▁rwakorewemo	-13863
▁rwazishyize	-13864
▁santimetero	-13865
▁simbibonera	-13866
▁subscribers	-13867
▁turirimbana	-13868
▁tutashobora	-13869
▁twabikoraho	-13870
▁twakwitwara	-13871
▁ugashyiramo	-13872
▁uguhagarika	-13873
▁ugushyiraho	-13874
▁uhindurweho	-13875
▁ukayerekeza	-13876
▁ukwiyongera	-13877
▁umugiraneza	-13878
▁umuhererezi	-13879
▁uzabazamura	-13880
▁wabimusabye	-13881
▁washyingiye	-13882
▁wazamutseho	-13883
▁yagarutsemo	-13884
▁yagurishaga	-13885
▁yagurishije	-13886
▁yahamagajwe	-13887
▁yamusimbuye	-13888
▁yaramanutse	-13889
▁yaratangiye	-13890
▁yatangiraga	-13891
▁yayoborwamo	-13892
▁ybagaragaje	-13893
▁yiyumvisemo	-13894
▁yumvikanamo	-13895
ABABAKURIKIRA	-13896
ABAHAGARARIYE	-13897
INDANGAGACIRO	-13898
INTANGARUGERO	-13899
UBUGENZACYAHA	-13900
UBURASIRAZUBA	-13901
UMUNYAMABANGA	-13902
UMUTSINDIRANO	-13903
Ubugenzacyaha	-13904
Uburasirazuba	-13905
Umunyamabanga	-13906
ababakurikira	-13907
abahagarariye	-13908
indangagaciro	-13909
intangarugero	-13910
umutsindirano	-13911
▁ABAHANZIKAZI	-13912
▁ACYEREKEYEHO	-13913
▁AMAKIMBIRANE	-13914
▁ANIYANDIKAHO	-13915
▁ATARAGARUZWA	-13916
▁ATAZIBAGIRWA	-13917
▁AZIBUKIRWAHO	-13918
▁BAGASHYIRAHO	-13919
▁BAKAGENZURWA	-13920
▁BAMENYEKANYE	-13921
▁BAMWUNGIRIJE	-13922
▁BASHYIGIKIYE	-13923
▁BATANDUKANYE	-13924
▁BAZIGARAGAZA	-13925
▁BIDUTEGURIRE	-13926
▁BIGATANGAZWA	-13927
▁BIMWINJIRIZA	-13928
▁BITUGERERAHO	-13929
▁BUBUNGABUNGA	-13930
▁BUGARAGARIRA	-13931
▁BURASIRAZUBA	-13932
▁BURENGANZIRA	-13933
▁Bitandukanye	-13934
▁CYAHAGURUTSE	-13935
▁GUHAMAGARIRA	-13936
▁GUKWIRAKWIRA	-13937
▁GUSHYIRIRAHO	-13938
▁GUTANGURANWA	-13939
▁GUTORANYWAMO	-13940
▁HATORANYIJWE	-13941
▁ICURABURINDI	-13942
▁IKAZAFATIRWA	-13943
▁IKORANABUNGA	-13944
▁IRITARARENGA	-13945
▁ITARAVUZWEHO	-13946
▁Iritararenga	-13947
▁KIMUSHENGURA	-13948
▁KUBIKUNDISHA	-13949
▁KUGARAGARAMO	-13950
▁KURUJYIBWAMI	-13951
▁KUYISEZERAHO	-13952
▁KUYISEZERERA	-13953
▁KUZAGARAGARA	-13954
▁KWIRENGAGIZA	-13955
▁Kurujyibwami	-13956
▁MPESHAMWENDA	-13957
▁MUJAWAMARIYA	-13958
▁MUMUNSHAKIRE	-13959
▁MYIGISHIRIZE	-13960
▁Mujawamariya	-13961
▁NDANAMUKUNDA	-13962
▁NGARUKAMWAKA	-13963
▁RUBAHAMAGAJE	-13964
▁RUSHINGIYEHO	-13965
▁RYAZABYARIRA	-13966
▁SINABIHAKANA	-13967
▁SINZIBAGIRWA	-13968
▁Sinabihakana	-13969
▁TUZASHYIRAMO	-13970
▁TWAYITANGIZA	-13971
▁TWIRENGAGIJE	-13972
▁UBUDAHERANWA	-13973
▁UBUREGANZIRA	-13974
▁UMUNYARWANDA	-13975
▁UVUGURURWAHO	-13976
▁UZAMUSIMBURA	-13977
▁Ubudaheranwa	-13978
▁Umunyarwanda	-13979
▁Umunyarwenya	-13980
▁WAKURIKIYEHO	-13981
▁YABISOBANUYE	-13982
▁YAGARAGAZAGA	-13983
▁YAMENYEKANYE	-13984
▁YARADUTSINZE	-13985
▁YARAGERAGEJE	-13986
▁YARAHAMAGAWE	-13987
▁YARIGARURIYE	-13988
▁YATANDUKANYE	-13989
▁YIFASHISHIJE	-13990
▁YISHYIKIRIZA	-13991
▁Yaragerageje	-13992
▁Yifashishije	-13993
▁ZAGURISHIJWE	-13994
▁ZIHAGARARIYE	-13995
▁ZITEGANYIJWE	-13996
▁abahanzikazi	-13997
▁abanyamakuru	-13998
▁acyerekeyeho	-13999
▁amakimbirane	-14000
▁aniyandikaho	-14001
▁ataragaruzwa	-14002
▁atazibagirwa	-14003
▁azibukirwaho	-14004
▁bagashyiraho	-14005
▁bakagenzurwa	-14006
▁bamenyekanye	-14007
▁bamwungirije	-14008
▁bashyigikiye	-14009
▁batandukanye	-14010
▁bazigaragaza	-14011
▁bidutegurire	-14012
▁bigatangazwa	-14013
▁bimwinjiriza	-14014
▁biteganyijwe	-14015
▁bitugereraho	-14016
▁bubungabunga	-14017
▁bugaragarira	-14018
▁burasirazuba	-14019
▁burenganzira	-14020
▁cyahagurutse	-14021
▁guhamagarira	-14022
▁gukwirakwira	-14023
▁gushyiriraho	-14024
▁gutanguranwa	-14025
▁gutoranywamo	-14026
▁hatoranyijwe	-14027
▁icuraburindi	-14028
▁ikazafatirwa	-14029
▁ikoranabunga	-14030
▁itaravuzweho	-14031
▁kimushengura	-14032
▁kubikundisha	-14033
▁kugaragaramo	-14034
▁kuyisezeraho	-14035
▁kuyisezerera	-14036
▁kuzagaragara	-14037
▁kwirengagiza	-14038
▁mpeshamwenda	-14039
▁mumunshakire	-14040
▁myigishirize	-14041
▁ndanamukunda	-14042
▁ngarukamwaka	-14043
▁rubahamagaje	-14044
▁rushingiyeho	-14045
▁ryazabyarira	-14046
▁sinzibagirwa	-14047
▁tuzashyiramo	-14048
▁twayitangiza	-14049
▁twirengagije	-14050
▁ubureganzira	-14051
▁umunyarwenya	-14052
▁uvugururwaho	-14053
▁uzamusimbura	-14054
▁wakurikiyeho	-14055
▁yabisobanuye	-14056
▁yagaragazaga	-14057
▁yamenyekanye	-14058
▁yaradutsinze	-14059
▁yarahamagawe	-14060
▁yarigaruriye	-14061
▁yatandukanye	-14062
▁yishyikiriza	-14063
▁zagurishijwe	-14064
▁zihagarariye	-14065
▁ziteganyijwe	-14066
ABANYAMATEGEKO	-14067
ABATANDUKANAGA	-14068
IMIKORESHEREZA	-14069
Ikoranabuhanga	-14070
Itangazamakuru	-14071
MWISHUSHANYAHO	-14072
TWARAKUYOBOTSE	-14073
Twarakuyobotse	-14074
abanyamategeko	-14075
abatandukanaga	-14076
imikoreshereza	-14077
itangazamakuru	-14078
mwishushanyaho	-14079
▁ABAZAGARAGARA	-14080
▁ABIHANAGUZAHO	-14081
▁AKANYITANGIRA	-14082
▁AMUGARAGARIZE	-14083
▁ARANTAMBAGIZA	-14084
▁ASHISHIKARIZA	-14085
▁AZAMURIKIRAMO	-14086
▁BAKAKIGUTWARA	-14087
▁BARIYONGEREYE	-14088
▁BASOBANURIRWA	-14089
▁BAZAYIKORESHA	-14090
▁BIDASUBIRWAHO	-14091
▁BURENGERAZUBA	-14092
▁BYAGABANYUTSE	-14093
▁BYAGARAGARAGA	-14094
▁BYAMUKOMEREYE	-14095
▁BYEGERANYWAGA	-14096
▁CONFEDERATION	-14097
▁CONFÉDERATION	-14098
▁Confederation	-14099
▁Conféderation	-14100
▁GUHEREREKANYA	-14101
▁GUSOBANUKIRWA	-14102
▁IDASHYIGIKIYE	-14103
▁IMYIGISHIRIZE	-14104
▁INDANGARUBUGA	-14105
▁ITARARIRIMBWA	-14106
▁KASHINGAMUTWE	-14107
▁KUBWEREKEZAMO	-14108
▁KUGISESENGURA	-14109
▁KUZANSHIMISHA	-14110
▁KUZIFASHISHWA	-14111
▁KWISHYIKIRIZA	-14112
▁KWITANDUKANYA	-14113
▁Kashingamutwe	-14114
▁MBWIRWARUHAME	-14115
▁MUKANYILIGIRA	-14116
▁MUNYAPOLITIKI	-14117
▁Mukanyiligira	-14118
▁NIYONIRINGIYE	-14119
▁NTAWANYUMVISE	-14120
▁NTIBYAGAKWIYE	-14121
▁NTIDUSHYIREHO	-14122
▁NTITWAYABYAZA	-14123
▁NZABYIBAGIRWA	-14124
▁NZANISHYIRAHO	-14125
▁Niyoniringiye	-14126
▁RIZABANGAMIRA	-14127
▁TWAYISHYIRAHO	-14128
▁UMUTSINDIRANO	-14129
▁UZAKURIKIRAHO	-14130
▁YAKURIKIRANWA	-14131
▁YANAKWIYAHURA	-14132
▁YATUNGANYIJWE	-14133
▁YOUTUBEISRAEL	-14134
▁YouTubeIsrael	-14135
▁ZIKURIKIRANYA	-14136
▁abazagaragara	-14137
▁abihanaguzaho	-14138
▁akanyitangira	-14139
▁amugaragarize	-14140
▁arantambagiza	-14141
▁ashishikariza	-14142
▁azamurikiramo	-14143
▁bakakigutwara	-14144
▁bariyongereye	-14145
▁basobanurirwa	-14146
▁bazayikoresha	-14147
▁bidasubirwaho	-14148
▁burengerazuba	-14149
▁byagabanyutse	-14150
▁byagaragaraga	-14151
▁byamukomereye	-14152
▁byegeranywaga	-14153
▁guhererekanya	-14154
▁gusobanukirwa	-14155
▁idashyigikiye	-14156
▁imyigishirize	-14157
▁indangarubuga	-14158
▁itararirimbwa	-14159
▁kubwerekezamo	-14160
▁kugisesengura	-14161
▁kuzanshimisha	-14162
▁kuzifashishwa	-14163
▁kwishyikiriza	-14164
▁kwitandukanya	-14165
▁mbwirwaruhame	-14166
▁munyapolitiki	-14167
▁ntawanyumvise	-14168
▁ntibyagakwiye	-14169
▁ntidushyireho	-14170
▁ntitwayabyaza	-14171
▁nzabyibagirwa	-14172
▁nzanishyiraho	-14173
▁rizabangamira	-14174
▁twayishyiraho	-14175
▁umutsindirano	-14176
▁uzakurikiraho	-14177
▁yakurikiranwa	-14178
▁yanakwiyahura	-14179
▁yatunganyijwe	-14180
▁zikurikiranya	-14181
ABARWINJIRIZAHO	-14182
ABIYANDIKISHIJE	-14183
AGAHIMBAZAMUSYI	-14184
UBUFATANYACYAHA	-14185
abarwinjirizaho	-14186
abiyandikishije	-14187
agahimbazamusyi	-14188
ubufatanyacyaha	-14189
▁AGIKURIKIRANWA	-14190
▁AMARANGAMUTIMA	-14191
▁ARAKURIKIRANWA	-14192
▁ATABYUBAHIRIZA	-14193
▁AZARIRIMBIRAMO	-14194
▁Amarangamutima	-14195
▁BATARAYIMARANA	-14196
▁BIGARAGARARIRA	-14197
▁BITARATANGAZWA	-14198
▁BIYANDIKISHIJE	-14199
▁BYARAGABANUTSE	-14200
▁BYARANANIRANYE	-14201
▁CYANSHIMISHIJE	-14202
▁GUSHAKISHIRIZA	-14203
▁HANZINYARWANDA	-14204
▁IMYIGARAGAMBYO	-14205
[...]
